{
  "version": "1.0",
  "truncation": null,
  "padding": null,
  "added_tokens": [
    {
      "id": 0,
      "content": "[PAD]",
      "single_word": false,
      "lstrip": false,
      "rstrip": false,
      "normalized": false,
      "special": true
    },
    {
      "id": 1,
      "content": "[UNK]",
      "single_word": false,
      "lstrip": false,
      "rstrip": false,
      "normalized": false,
      "special": true
    },
    {
      "id": 2,
      "content": "[CLS]",
      "single_word": false,
      "lstrip": false,
      "rstrip": false,
      "normalized": false,
      "special": true
    },
    {
      "id": 3,
      "content": "[SEP]",
      "single_word": false,
      "lstrip": false,
      "rstrip": false,
      "normalized": false,
      "special": true
    },
    {
      "id": 4,
      "content": "[MASK]",
      "single_word": false,
      "lstrip": false,
      "rstrip": false,
      "normalized": false,
      "special": true
    }
  ],
  "normalizer": null,
  "pre_tokenizer": {
    "type": "Whitespace"
  },
  "post_processor": null,
  "decoder": null,
  "model": {
    "type": "BPE",
    "dropout": null,
    "unk_token": null,
    "continuing_subword_prefix": null,
    "end_of_word_suffix": null,
    "fuse_unk": false,
    "byte_fallback": false,
    "vocab": {
      "[PAD]": 0,
      "[UNK]": 1,
      "[CLS]": 2,
      "[SEP]": 3,
      "[MASK]": 4,
      "一": 5,
      "七": 6,
      "万": 7,
      "三": 8,
      "上": 9,
      "下": 10,
      "不": 11,
      "与": 12,
      "专": 13,
      "且": 14,
      "世": 15,
      "业": 16,
      "东": 17,
      "两": 18,
      "个": 19,
      "中": 20,
      "为": 21,
      "主": 22,
      "么": 23,
      "义": 24,
      "之": 25,
      "乎": 26,
      "乐": 27,
      "九": 28,
      "也": 29,
      "习": 30,
      "书": 31,
      "买": 32,
      "了": 33,
      "争": 34,
      "事": 35,
      "二": 36,
      "于": 37,
      "云": 38,
      "五": 39,
      "亚": 40,
      "些": 41,
      "交": 42,
      "产": 43,
      "京": 44,
      "亮": 45,
      "亲": 46,
      "人": 47,
      "什": 48,
      "仁": 49,
      "仅": 50,
      "今": 51,
      "介": 52,
      "从": 53,
      "他": 54,
      "仙": 55,
      "代": 56,
      "以": 57,
      "们": 58,
      "件": 59,
      "价": 60,
      "任": 61,
      "份": 62,
      "企": 63,
      "众": 64,
      "优": 65,
      "伙": 66,
      "会": 67,
      "传": 68,
      "伤": 69,
      "但": 70,
      "位": 71,
      "低": 72,
      "住": 73,
      "体": 74,
      "何": 75,
      "作": 76,
      "你": 77,
      "使": 78,
      "例": 79,
      "供": 80,
      "依": 81,
      "侧": 82,
      "便": 83,
      "保": 84,
      "信": 85,
      "修": 86,
      "候": 87,
      "值": 88,
      "假": 89,
      "做": 90,
      "健": 91,
      "傻": 92,
      "像": 93,
      "儿": 94,
      "元": 95,
      "充": 96,
      "先": 97,
      "光": 98,
      "克": 99,
      "免": 100,
      "党": 101,
      "入": 102,
      "全": 103,
      "八": 104,
      "公": 105,
      "六": 106,
      "共": 107,
      "关": 108,
      "兴": 109,
      "其": 110,
      "具": 111,
      "养": 112,
      "内": 113,
      "再": 114,
      "写": 115,
      "军": 116,
      "农": 117,
      "决": 118,
      "况": 119,
      "净": 120,
      "准": 121,
      "几": 122,
      "凡": 123,
      "出": 124,
      "击": 125,
      "分": 126,
      "切": 127,
      "划": 128,
      "列": 129,
      "则": 130,
      "刚": 131,
      "创": 132,
      "初": 133,
      "利": 134,
      "别": 135,
      "到": 136,
      "制": 137,
      "剌": 138,
      "前": 139,
      "剧": 140,
      "副": 141,
      "劈": 142,
      "力": 143,
      "办": 144,
      "功": 145,
      "加": 146,
      "务": 147,
      "动": 148,
      "助": 149,
      "势": 150,
      "包": 151,
      "化": 152,
      "北": 153,
      "区": 154,
      "医": 155,
      "十": 156,
      "千": 157,
      "升": 158,
      "卉": 159,
      "半": 160,
      "华": 161,
      "协": 162,
      "单": 163,
      "南": 164,
      "博": 165,
      "卡": 166,
      "卫": 167,
      "即": 168,
      "却": 169,
      "厄": 170,
      "历": 171,
      "压": 172,
      "原": 173,
      "厢": 174,
      "去": 175,
      "县": 176,
      "参": 177,
      "又": 178,
      "及": 179,
      "友": 180,
      "双": 181,
      "反": 182,
      "发": 183,
      "取": 184,
      "受": 185,
      "变": 186,
      "口": 187,
      "古": 188,
      "句": 189,
      "另": 190,
      "只": 191,
      "叫": 192,
      "可": 193,
      "台": 194,
      "史": 195,
      "右": 196,
      "号": 197,
      "司": 198,
      "吃": 199,
      "各": 200,
      "合": 201,
      "吊": 202,
      "同": 203,
      "名": 204,
      "后": 205,
      "向": 206,
      "吗": 207,
      "吟": 208,
      "否": 209,
      "吧": 210,
      "听": 211,
      "吾": 212,
      "告": 213,
      "员": 214,
      "呢": 215,
      "周": 216,
      "味": 217,
      "命": 218,
      "和": 219,
      "品": 220,
      "哈": 221,
      "响": 222,
      "哪": 223,
      "哺": 224,
      "商": 225,
      "啊": 226,
      "善": 227,
      "喜": 228,
      "嘤": 229,
      "器": 230,
      "噶": 231,
      "四": 232,
      "回": 233,
      "因": 234,
      "团": 235,
      "园": 236,
      "围": 237,
      "国": 238,
      "图": 239,
      "圈": 240,
      "土": 241,
      "在": 242,
      "地": 243,
      "场": 244,
      "均": 245,
      "坝": 246,
      "型": 247,
      "城": 248,
      "域": 249,
      "基": 250,
      "境": 251,
      "增": 252,
      "壑": 253,
      "士": 254,
      "声": 255,
      "处": 256,
      "备": 257,
      "复": 258,
      "外": 259,
      "多": 260,
      "够": 261,
      "大": 262,
      "天": 263,
      "太": 264,
      "夫": 265,
      "失": 266,
      "头": 267,
      "奇": 268,
      "奖": 269,
      "女": 270,
      "她": 271,
      "好": 272,
      "如": 273,
      "妇": 274,
      "妈": 275,
      "始": 276,
      "委": 277,
      "婚": 278,
      "子": 279,
      "字": 280,
      "存": 281,
      "学": 282,
      "孩": 283,
      "它": 284,
      "安": 285,
      "完": 286,
      "官": 287,
      "定": 288,
      "宝": 289,
      "实": 290,
      "客": 291,
      "室": 292,
      "宦": 293,
      "害": 294,
      "家": 295,
      "容": 296,
      "宾": 297,
      "寅": 298,
      "密": 299,
      "富": 300,
      "对": 301,
      "导": 302,
      "将": 303,
      "小": 304,
      "少": 305,
      "尔": 306,
      "就": 307,
      "尽": 308,
      "尿": 309,
      "局": 310,
      "层": 311,
      "居": 312,
      "展": 313,
      "属": 314,
      "山": 315,
      "岁": 316,
      "州": 317,
      "工": 318,
      "左": 319,
      "差": 320,
      "己": 321,
      "已": 322,
      "巴": 323,
      "市": 324,
      "布": 325,
      "师": 326,
      "希": 327,
      "带": 328,
      "帮": 329,
      "常": 330,
      "幂": 331,
      "干": 332,
      "平": 333,
      "年": 334,
      "并": 335,
      "广": 336,
      "序": 337,
      "应": 338,
      "底": 339,
      "店": 340,
      "府": 341,
      "度": 342,
      "康": 343,
      "建": 344,
      "开": 345,
      "异": 346,
      "式": 347,
      "引": 348,
      "张": 349,
      "弩": 350,
      "强": 351,
      "当": 352,
      "录": 353,
      "形": 354,
      "彰": 355,
      "影": 356,
      "往": 357,
      "待": 358,
      "很": 359,
      "律": 360,
      "得": 361,
      "微": 362,
      "德": 363,
      "心": 364,
      "必": 365,
      "忆": 366,
      "志": 367,
      "快": 368,
      "念": 369,
      "态": 370,
      "怎": 371,
      "思": 372,
      "性": 373,
      "总": 374,
      "息": 375,
      "患": 376,
      "情": 377,
      "想": 378,
      "意": 379,
      "感": 380,
      "慢": 381,
      "戊": 382,
      "戍": 383,
      "戏": 384,
      "成": 385,
      "我": 386,
      "或": 387,
      "战": 388,
      "户": 389,
      "房": 390,
      "所": 391,
      "扇": 392,
      "手": 393,
      "才": 394,
      "打": 395,
      "找": 396,
      "承": 397,
      "技": 398,
      "把": 399,
      "投": 400,
      "护": 401,
      "报": 402,
      "拉": 403,
      "拨": 404,
      "择": 405,
      "拿": 406,
      "持": 407,
      "指": 408,
      "按": 409,
      "捞": 410,
      "换": 411,
      "捧": 412,
      "据": 413,
      "排": 414,
      "接": 415,
      "控": 416,
      "推": 417,
      "提": 418,
      "撸": 419,
      "支": 420,
      "收": 421,
      "改": 422,
      "放": 423,
      "政": 424,
      "故": 425,
      "效": 426,
      "教": 427,
      "数": 428,
      "整": 429,
      "文": 430,
      "料": 431,
      "斥": 432,
      "断": 433,
      "斯": 434,
      "新": 435,
      "方": 436,
      "施": 437,
      "族": 438,
      "无": 439,
      "日": 440,
      "旨": 441,
      "早": 442,
      "时": 443,
      "明": 444,
      "易": 445,
      "星": 446,
      "是": 447,
      "显": 448,
      "晋": 449,
      "晚": 450,
      "普": 451,
      "景": 452,
      "智": 453,
      "暖": 454,
      "曲": 455,
      "更": 456,
      "曾": 457,
      "最": 458,
      "月": 459,
      "有": 460,
      "朋": 461,
      "服": 462,
      "望": 463,
      "期": 464,
      "木": 465,
      "未": 466,
      "本": 467,
      "术": 468,
      "机": 469,
      "杀": 470,
      "权": 471,
      "李": 472,
      "材": 473,
      "村": 474,
      "条": 475,
      "来": 476,
      "板": 477,
      "极": 478,
      "构": 479,
      "析": 480,
      "林": 481,
      "果": 482,
      "查": 483,
      "标": 484,
      "校": 485,
      "样": 486,
      "核": 487,
      "根": 488,
      "格": 489,
      "桃": 490,
      "案": 491,
      "检": 492,
      "棍": 493,
      "楚": 494,
      "楼": 495,
      "概": 496,
      "榆": 497,
      "模": 498,
      "橙": 499,
      "檀": 500,
      "次": 501,
      "欢": 502,
      "款": 503,
      "歌": 504,
      "正": 505,
      "此": 506,
      "步": 507,
      "武": 508,
      "死": 509,
      "段": 510,
      "母": 511,
      "每": 512,
      "比": 513,
      "毕": 514,
      "民": 515,
      "气": 516,
      "水": 517,
      "求": 518,
      "汇": 519,
      "汉": 520,
      "江": 521,
      "污": 522,
      "汪": 523,
      "沌": 524,
      "没": 525,
      "河": 526,
      "油": 527,
      "治": 528,
      "法": 529,
      "注": 530,
      "活": 531,
      "流": 532,
      "测": 533,
      "济": 534,
      "浏": 535,
      "浦": 536,
      "海": 537,
      "消": 538,
      "涡": 539,
      "涯": 540,
      "深": 541,
      "清": 542,
      "温": 543,
      "游": 544,
      "源": 545,
      "满": 546,
      "漓": 547,
      "演": 548,
      "漳": 549,
      "濡": 550,
      "火": 551,
      "灵": 552,
      "点": 553,
      "热": 554,
      "焖": 555,
      "無": 556,
      "然": 557,
      "照": 558,
      "熹": 559,
      "燃": 560,
      "爱": 561,
      "爵": 562,
      "父": 563,
      "爸": 564,
      "爽": 565,
      "片": 566,
      "版": 567,
      "牌": 568,
      "牡": 569,
      "物": 570,
      "特": 571,
      "牺": 572,
      "状": 573,
      "独": 574,
      "猫": 575,
      "率": 576,
      "王": 577,
      "玩": 578,
      "环": 579,
      "现": 580,
      "班": 581,
      "球": 582,
      "理": 583,
      "琢": 584,
      "瑚": 585,
      "生": 586,
      "用": 587,
      "由": 588,
      "电": 589,
      "男": 590,
      "画": 591,
      "界": 592,
      "留": 593,
      "疑": 594,
      "疗": 595,
      "病": 596,
      "白": 597,
      "百": 598,
      "的": 599,
      "皮": 600,
      "盆": 601,
      "益": 602,
      "监": 603,
      "盘": 604,
      "盟": 605,
      "目": 606,
      "直": 607,
      "相": 608,
      "省": 609,
      "看": 610,
      "真": 611,
      "眼": 612,
      "着": 613,
      "知": 614,
      "矮": 615,
      "石": 616,
      "研": 617,
      "破": 618,
      "硝": 619,
      "确": 620,
      "磋": 621,
      "示": 622,
      "礼": 623,
      "社": 624,
      "祀": 625,
      "神": 626,
      "票": 627,
      "福": 628,
      "禧": 629,
      "禺": 630,
      "离": 631,
      "种": 632,
      "科": 633,
      "积": 634,
      "称": 635,
      "程": 636,
      "税": 637,
      "稻": 638,
      "究": 639,
      "空": 640,
      "突": 641,
      "窘": 642,
      "窝": 643,
      "立": 644,
      "站": 645,
      "章": 646,
      "笑": 647,
      "笙": 648,
      "第": 649,
      "等": 650,
      "答": 651,
      "简": 652,
      "算": 653,
      "管": 654,
      "箭": 655,
      "箱": 656,
      "米": 657,
      "类": 658,
      "粉": 659,
      "精": 660,
      "系": 661,
      "素": 662,
      "累": 663,
      "红": 664,
      "约": 665,
      "级": 666,
      "纪": 667,
      "纱": 668,
      "线": 669,
      "练": 670,
      "组": 671,
      "细": 672,
      "织": 673,
      "终": 674,
      "经": 675,
      "结": 676,
      "给": 677,
      "绝": 678,
      "统": 679,
      "继": 680,
      "续": 681,
      "维": 682,
      "编": 683,
      "网": 684,
      "罗": 685,
      "置": 686,
      "羊": 687,
      "美": 688,
      "群": 689,
      "老": 690,
      "考": 691,
      "者": 692,
      "而": 693,
      "耗": 694,
      "职": 695,
      "联": 696,
      "肛": 697,
      "育": 698,
      "背": 699,
      "胧": 700,
      "胺": 701,
      "能": 702,
      "脂": 703,
      "脑": 704,
      "脱": 705,
      "自": 706,
      "至": 707,
      "致": 708,
      "舒": 709,
      "舜": 710,
      "般": 711,
      "色": 712,
      "艺": 713,
      "节": 714,
      "芋": 715,
      "花": 716,
      "苏": 717,
      "英": 718,
      "范": 719,
      "药": 720,
      "荼": 721,
      "莎": 722,
      "获": 723,
      "菏": 724,
      "菩": 725,
      "营": 726,
      "落": 727,
      "薪": 728,
      "藏": 729,
      "虽": 730,
      "蚌": 731,
      "螺": 732,
      "血": 733,
      "行": 734,
      "补": 735,
      "表": 736,
      "衫": 737,
      "被": 738,
      "裂": 739,
      "装": 740,
      "裔": 741,
      "褐": 742,
      "西": 743,
      "要": 744,
      "见": 745,
      "观": 746,
      "规": 747,
      "视": 748,
      "觉": 749,
      "角": 750,
      "解": 751,
      "言": 752,
      "語": 753,
      "计": 754,
      "认": 755,
      "让": 756,
      "议": 757,
      "记": 758,
      "讲": 759,
      "许": 760,
      "论": 761,
      "设": 762,
      "证": 763,
      "评": 764,
      "识": 765,
      "词": 766,
      "试": 767,
      "话": 768,
      "该": 769,
      "语": 770,
      "诲": 771,
      "说": 772,
      "请": 773,
      "读": 774,
      "课": 775,
      "谁": 776,
      "调": 777,
      "谈": 778,
      "谢": 779,
      "象": 780,
      "负": 781,
      "财": 782,
      "责": 783,
      "质": 784,
      "贪": 785,
      "费": 786,
      "资": 787,
      "赌": 788,
      "赛": 789,
      "走": 790,
      "起": 791,
      "趁": 792,
      "超": 793,
      "越": 794,
      "足": 795,
      "跟": 796,
      "路": 797,
      "身": 798,
      "车": 799,
      "转": 800,
      "软": 801,
      "轻": 802,
      "载": 803,
      "较": 804,
      "辈": 805,
      "输": 806,
      "边": 807,
      "达": 808,
      "过": 809,
      "运": 810,
      "近": 811,
      "还": 812,
      "这": 813,
      "进": 814,
      "远": 815,
      "连": 816,
      "迟": 817,
      "追": 818,
      "送": 819,
      "适": 820,
      "选": 821,
      "這": 822,
      "通": 823,
      "速": 824,
      "造": 825,
      "逸": 826,
      "道": 827,
      "遭": 828,
      "邃": 829,
      "那": 830,
      "邯": 831,
      "部": 832,
      "都": 833,
      "鄂": 834,
      "配": 835,
      "酒": 836,
      "酯": 837,
      "采": 838,
      "里": 839,
      "重": 840,
      "量": 841,
      "金": 842,
      "钱": 843,
      "铝": 844,
      "销": 845,
      "锈": 846,
      "错": 847,
      "镇": 848,
      "镰": 849,
      "长": 850,
      "门": 851,
      "闪": 852,
      "问": 853,
      "间": 854,
      "队": 855,
      "阱": 856,
      "防": 857,
      "阳": 858,
      "阿": 859,
      "际": 860,
      "限": 861,
      "院": 862,
      "除": 863,
      "险": 864,
      "随": 865,
      "难": 866,
      "集": 867,
      "需": 868,
      "青": 869,
      "非": 870,
      "面": 871,
      "音": 872,
      "项": 873,
      "预": 874,
      "领": 875,
      "颈": 876,
      "频": 877,
      "题": 878,
      "风": 879,
      "飒": 880,
      "飓": 881,
      "飞": 882,
      "食": 883,
      "餐": 884,
      "馋": 885,
      "首": 886,
      "香": 887,
      "马": 888,
      "骁": 889,
      "验": 890,
      "骨": 891,
      "高": 892,
      "鲸": 893,
      "黄": 894,
      "黑": 895,
      "黔": 896,
      "齐": 897,
      "龙": 898,
      "高高": 899,
      "楼楼": 900,
      "高高高高": 901,
      "啊啊": 902,
      "除除": 903,
      "楼楼楼楼": 904,
      "叫叫": 905,
      "确确": 906,
      "层层": 907,
      "高高高高高高高高": 908,
      "绝绝": 909,
      "本本": 910,
      "介介": 911,
      "数数": 912,
      "除除除除": 913,
      "啊啊啊啊": 914,
      "笙笙": 915,
      "团团": 916,
      "天天": 917,
      "爽爽": 918,
      "楼楼楼楼楼楼楼楼": 919,
      "汉汉": 920,
      "福福": 921,
      "单单": 922,
      "漓漓": 923,
      "技技": 924,
      "没没": 925,
      "考考": 926,
      "华华": 927,
      "锈锈": 928,
      "后后": 929,
      "藏藏": 930,
      "裔裔": 931,
      "流流": 932,
      "议议": 933,
      "下下": 934,
      "够够": 935,
      "叫叫叫叫": 936,
      "合合": 937,
      "脑脑": 938,
      "级级": 939,
      "宝宝": 940,
      "结结": 941,
      "命命": 942,
      "有有": 943,
      "两两": 944,
      "府府": 945,
      "熹熹": 946,
      "居居": 947,
      "自自": 948,
      "用用": 949,
      "胧胧": 950,
      "书书": 951,
      "德德": 952,
      "箱箱": 953,
      "击击": 954,
      "死死": 955,
      "承承": 956,
      "你你": 957,
      "速速": 958,
      "晚晚": 959,
      "由由": 960,
      "尔尔": 961,
      "值值": 962,
      "嘤嘤": 963,
      "高高高高高高高高高高高高高高高高": 964,
      "舒舒": 965,
      "打打": 966,
      "择择": 967,
      "开开": 968,
      "章章": 969,
      "侧侧": 970,
      "高高高": 971,
      "盆盆": 972,
      "补补": 973,
      "绝绝绝绝": 974,
      "官官": 975,
      "份份": 976,
      "队队": 977,
      "确确确确": 978,
      "知知": 979,
      "支支": 980,
      "十十": 981,
      "啊啊啊": 982,
      "羊羊": 983,
      "八八": 984,
      "片片": 985,
      "白白": 986,
      "正正": 987,
      "阿阿": 988,
      "扇扇": 989,
      "质质": 990,
      "事事": 991,
      "步步": 992,
      "村村": 993,
      "于于": 994,
      "吧吧": 995,
      "比比": 996,
      "远远": 997,
      "乎乎": 998,
      "介介介介": 999,
      "层层层层": 1000,
      "施施": 1001,
      "部部": 1002,
      "己己": 1003,
      "应应": 1004,
      "全全": 1005,
      "置置": 1006,
      "楚楚": 1007,
      "周周": 1008,
      "小小": 1009,
      "角角": 1010,
      "齐齐": 1011,
      "再再": 1012,
      "硝硝": 1013,
      "脱脱": 1014,
      "北北": 1015,
      "科科": 1016,
      "海海": 1017,
      "按按": 1018,
      "拉拉": 1019,
      "厄厄": 1020,
      "向向": 1021,
      "害害": 1022,
      "楼楼楼": 1023,
      "磋磋": 1024,
      "喜喜": 1025,
      "标标": 1026,
      "业业": 1027,
      "戍戍": 1028,
      "效效": 1029,
      "证证": 1030,
      "市市": 1031,
      "点点": 1032,
      "如如": 1033,
      "大大": 1034,
      "非非": 1035,
      "易易": 1036,
      "早早": 1037,
      "士士": 1038,
      "协协": 1039,
      "身身": 1040,
      "显显": 1041,
      "噶噶": 1042,
      "数数数数": 1043,
      "完完": 1044,
      "除除除": 1045,
      "子子": 1046,
      "本本本本": 1047,
      "看看": 1048,
      "字字": 1049,
      "除除除除除除除除": 1050,
      "切切": 1051,
      "配配": 1052,
      "戊戊": 1053,
      "取取": 1054,
      "走走": 1055,
      "有尔": 1056,
      "祀祀": 1057,
      "辈辈": 1058,
      "药药": 1059,
      "版版": 1060,
      "镰镰": 1061,
      "路路": 1062,
      "识识": 1063,
      "蚌蚌": 1064,
      "外外": 1065,
      "维维": 1066,
      "城城": 1067,
      "笙笙笙笙": 1068,
      "楼楼楼楼楼楼楼楼楼楼楼楼楼楼楼楼": 1069,
      "疑疑": 1070,
      "门门": 1071,
      "吟吟": 1072,
      "爽爽爽爽": 1073,
      "叫叫叫": 1074,
      "沌沌": 1075,
      "与与": 1076,
      "吗吗": 1077,
      "适适": 1078,
      "器器": 1079,
      "局局": 1080,
      "康康": 1081,
      "能能": 1082,
      "传传": 1083,
      "考考考考": 1084,
      "势势": 1085,
      "层层层": 1086,
      "餐餐": 1087,
      "礼礼": 1088,
      "尿尿": 1089,
      "宾宾": 1090,
      "彰彰": 1091,
      "满满": 1092,
      "待待": 1093,
      "巴巴": 1094,
      "食食": 1095,
      "天天天天": 1096,
      "心心": 1097,
      "境境": 1098,
      "星星": 1099,
      "农农": 1100,
      "所所": 1101,
      "县县": 1102,
      "可可": 1103,
      "系系": 1104,
      "理理": 1105,
      "息息": 1106,
      "什什": 1107,
      "时时": 1108,
      "我我": 1109,
      "病病": 1110,
      "窝窝": 1111,
      "育育": 1112,
      "房房": 1113,
      "确确确": 1114,
      "藏藏藏藏": 1115,
      "条条": 1116,
      "包包": 1117,
      "电电": 1118,
      "交交": 1119,
      "近近": 1120,
      "制制": 1121,
      "酒酒": 1122,
      "究究": 1123,
      "板板": 1124,
      "山山": 1125,
      "居居居居": 1126,
      "有型": 1127,
      "地地": 1128,
      "汪汪": 1129,
      "高高高高高": 1130,
      "啊啊啊啊啊啊啊啊": 1131,
      "造造": 1132,
      "毕毕": 1133,
      "弩弩": 1134,
      "团团团": 1135,
      "京京": 1136,
      "面面": 1137,
      "涡涡": 1138,
      "防防": 1139,
      "元元": 1140,
      "剌剌": 1141,
      "更更": 1142,
      "术术": 1143,
      "过过": 1144,
      "帮帮": 1145,
      "够够够够": 1146,
      "商商": 1147,
      "尔型": 1148,
      "票票": 1149,
      "先先": 1150,
      "馋馋": 1151,
      "决决": 1152,
      "反反": 1153,
      "橙橙": 1154,
      "财财": 1155,
      "福福福福": 1156,
      "六六": 1157,
      "上上": 1158,
      "宦宦": 1159,
      "在在": 1160,
      "责责": 1161,
      "漓漓漓漓": 1162,
      "有记": 1163,
      "命命命命": 1164,
      "务务": 1165,
      "实实": 1166,
      "护护": 1167,
      "对对": 1168,
      "太太": 1169,
      "职职": 1170,
      "利团": 1171,
      "们们": 1172,
      "景景": 1173,
      "少少": 1174,
      "历历": 1175,
      "禺禺": 1176,
      "政政": 1177,
      "叫叫叫叫叫叫叫叫": 1178,
      "名名": 1179,
      "坝坝": 1180,
      "处处": 1181,
      "這這": 1182,
      "创创": 1183,
      "速金": 1184,
      "和和": 1185,
      "爱爱": 1186,
      "结结结结": 1187,
      "别别": 1188,
      "单单单单": 1189,
      "兴兴": 1190,
      "信信": 1191,
      "转转": 1192,
      "作窝": 1193,
      "现现": 1194,
      "错错": 1195,
      "统统": 1196,
      "褐褐": 1197,
      "论工": 1198,
      "迟迟": 1199,
      "皮皮": 1200,
      "武武": 1201,
      "神神": 1202,
      "友友": 1203,
      "该该": 1204,
      "华华华华": 1205,
      "高高高高高高": 1206,
      "史史": 1207,
      "技技技技": 1208,
      "院院": 1209,
      "住住": 1210,
      "验验": 1211,
      "李李": 1212,
      "汉汉汉": 1213,
      "普普": 1214,
      "自自自自": 1215,
      "裔裔裔": 1216,
      "求求": 1217,
      "学学": 1218,
      "楼楼楼楼楼": 1219,
      "南南": 1220,
      "绝绝绝": 1221,
      "牺牺": 1222,
      "合合合合": 1223,
      "争争": 1224,
      "孩孩": 1225,
      "形形": 1226,
      "网网": 1227,
      "脂脂": 1228,
      "发发": 1229,
      "鲸鲸": 1230,
      "或或": 1231,
      "做做": 1232,
      "连连": 1233,
      "没没没": 1234,
      "本本本": 1235,
      "量量": 1236,
      "产产": 1237,
      "带带": 1238,
      "度度": 1239,
      "后后后": 1240,
      "环环": 1241,
      "光光": 1242,
      "府府府府": 1243,
      "是是": 1244,
      "价满": 1245,
      "始始": 1246,
      "超税": 1247,
      "利利": 1248,
      "行行": 1249,
      "专专": 1250,
      "流流流": 1251,
      "头头": 1252,
      "联联": 1253,
      "级级级级": 1254,
      "增增": 1255,
      "父父": 1256,
      "阳阳": 1257,
      "飒飒": 1258,
      "箱计": 1259,
      "尔记": 1260,
      "议议议议": 1261,
      "难难": 1262,
      "锈锈锈": 1263,
      "起起": 1264,
      "赛赛": 1265,
      "骁骁": 1266,
      "患患": 1267,
      "啊啊啊啊啊": 1268,
      "民民": 1269,
      "爸爸": 1270,
      "被被": 1271,
      "边边": 1272,
      "域域": 1273,
      "新新": 1274,
      "深深": 1275,
      "营营": 1276,
      "致致": 1277,
      "作作": 1278,
      "儿儿": 1279,
      "之之": 1280,
      "刚刚": 1281,
      "桃桃": 1282,
      "铝浏": 1283,
      "成成": 1284,
      "爵爵": 1285,
      "钱钱": 1286,
      "古古": 1287,
      "晚己": 1288,
      "苏苏": 1289,
      "数数数": 1290,
      "下下下": 1291,
      "回回": 1292,
      "高高高高高高高高高高高高高高高高高高高高高高高高高高高高高高高高": 1293,
      "示示": 1294,
      "校校": 1295,
      "却却": 1296,
      "語語": 1297,
      "日日": 1298,
      "还还": 1299,
      "此此": 1300,
      "以以": 1301,
      "好好": 1302,
      "假假": 1303,
      "区区": 1304,
      "群群": 1305,
      "据据": 1306,
      "单单单": 1307,
      "因因": 1308,
      "优优": 1309,
      "高高高高高高高": 1310,
      "胺胺": 1311,
      "注注": 1312,
      "阱阱": 1313,
      "天天天": 1314,
      "模模": 1315,
      "计继": 1316,
      "脑脑脑脑": 1317,
      "宝宝宝宝": 1318,
      "强强": 1319,
      "骨骨": 1320,
      "细细": 1321,
      "木木": 1322,
      "何何": 1323,
      "参参": 1324,
      "几几": 1325,
      "吃吃": 1326,
      "展展": 1327,
      "污污": 1328,
      "得得": 1329,
      "油油": 1330,
      "胧胧胧": 1331,
      "技技技": 1332,
      "桃管": 1333,
      "绝绝绝绝绝绝绝绝": 1334,
      "介介介介介介介介": 1335,
      "击住": 1336,
      "两两两": 1337,
      "红红": 1338,
      "白所": 1339,
      "些速速": 1340,
      "福福福": 1341,
      "年年": 1342,
      "际际": 1343,
      "龙龙": 1344,
      "明明": 1345,
      "漓漓漓": 1346,
      "伙伙": 1347,
      "利团团": 1348,
      "熹熹熹": 1349,
      "楼楼楼楼楼楼": 1350,
      "侧源": 1351,
      "华华华": 1352,
      "用用用": 1353,
      "状状": 1354,
      "尿之": 1355,
      "率率": 1356,
      "金金": 1357,
      "燃燃": 1358,
      "清清": 1359,
      "白嘤": 1360,
      "游游": 1361,
      "有粉": 1362,
      "北德": 1363,
      "笙笙笙": 1364,
      "些速": 1365,
      "艺艺": 1366,
      "往往": 1367,
      "运运": 1368,
      "盟盟": 1369,
      "调调": 1370,
      "远局": 1371,
      "立立": 1372,
      "个个": 1373,
      "计换": 1374,
      "注控": 1375,
      "德德德": 1376,
      "步步步步": 1377,
      "后由": 1378,
      "队你": 1379,
      "变变": 1380,
      "议议议": 1381,
      "老老": 1382,
      "称称": 1383,
      "七七": 1384,
      "必必": 1385,
      "除除除除除": 1386,
      "有尔尔": 1387,
      "那那": 1388,
      "牡牡": 1389,
      "乐乐": 1390,
      "博博": 1391,
      "文文": 1392,
      "书书书": 1393,
      "则则": 1394,
      "市市市市": 1395,
      "吟看": 1396,
      "亮亮": 1397,
      "提提": 1398,
      "牌牌": 1399,
      "高啊": 1400,
      "找找": 1401,
      "习发": 1402,
      "脑脑脑": 1403,
      "旨旨": 1404,
      "让让": 1405,
      "复复": 1406,
      "四四": 1407,
      "宝宝宝": 1408,
      "路分": 1409,
      "讲讲": 1410,
      "爽爽爽": 1411,
      "控浏": 1412,
      "诲诲": 1413,
      "管管": 1414,
      "底底": 1415,
      "用显": 1416,
      "养养": 1417,
      "承承承": 1418,
      "注传": 1419,
      "没没没没": 1420,
      "正业": 1421,
      "死死死": 1422,
      "健健": 1423,
      "道道": 1424,
      "始式": 1425,
      "级级级": 1426,
      "下下下下": 1427,
      "价海": 1428,
      "利熹": 1429,
      "样发": 1430,
      "美美": 1431,
      "江江": 1432,
      "她她": 1433,
      "傻傻": 1434,
      "你你你": 1435,
      "介介介": 1436,
      "嘤嘤嘤": 1437,
      "仙仙": 1438,
      "利药": 1439,
      "望望": 1440,
      "值值值": 1441,
      "引引": 1442,
      "类类": 1443,
      "极极": 1444,
      "合合合": 1445,
      "建建": 1446,
      "镇镇": 1447,
      "肛肛": 1448,
      "杀杀": 1449,
      "导导": 1450,
      "路知": 1451,
      "服服": 1452,
      "于汪": 1453,
      "片片片片": 1454,
      "称太": 1455,
      "妇妇": 1456,
      "课课": 1457,
      "八八八八": 1458,
      "裔公": 1459,
      "打打打": 1460,
      "认认": 1461,
      "路利": 1462,
      "舒舒舒": 1463,
      "击击击": 1464,
      "叫除": 1465,
      "汉汉汉汉": 1466,
      "空空": 1467,
      "阿阿阿阿": 1468,
      "分知": 1469,
      "琢做": 1470,
      "亲亲": 1471,
      "瑚瑚": 1472,
      "乎乎乎乎": 1473,
      "由由由": 1474,
      "企企": 1475,
      "至至": 1476,
      "份实": 1477,
      "将将": 1478,
      "啊啊啊啊啊啊": 1479,
      "楼楼楼楼楼楼楼": 1480,
      "团团团团": 1481,
      "其其": 1482,
      "铝控": 1483,
      "注婚": 1484,
      "开开开": 1485,
      "结结结": 1486,
      "漳漳": 1487,
      "琢税": 1488,
      "女女": 1489,
      "晚晚晚": 1490,
      "宦门": 1491,
      "越越": 1492,
      "他他": 1493,
      "盆盆盆": 1494,
      "侧论": 1495,
      "择择择择": 1496,
      "定定": 1497,
      "右右": 1498,
      "超浏": 1499,
      "章章章": 1500,
      "裔裔裔裔": 1501,
      "怎怎": 1502,
      "险险": 1503,
      "情情": 1504,
      "够够够": 1505,
      "知知知": 1506,
      "共共": 1507,
      "持持": 1508,
      "精精": 1509,
      "告告": 1510,
      "请请": 1511,
      "确确确确确": 1512,
      "失失": 1513,
      "事事事事": 1514,
      "义义": 1515,
      "装装": 1516,
      "戍切": 1517,
      "场场": 1518,
      "独独": 1519,
      "吊吊": 1520,
      "箱目": 1521,
      "十十十": 1522,
      "叫叫叫叫叫": 1523,
      "视视": 1524,
      "发因": 1525,
      "官官官": 1526,
      "故故": 1527,
      "锈锈锈锈": 1528,
      "羊羊羊": 1529,
      "需需": 1530,
      "军军": 1531,
      "业之": 1532,
      "品品": 1533,
      "村村村": 1534,
      "修修": 1535,
      "趁趁": 1536,
      "及及": 1537,
      "意意": 1538,
      "有尔型": 1539,
      "补补补": 1540,
      "桃作": 1541,
      "式公": 1542,
      "师师": 1543,
      "才才": 1544,
      "次次": 1545,
      "藏藏藏": 1546,
      "德北": 1547,
      "窝是": 1548,
      "府府府": 1549,
      "球球": 1550,
      "考考考": 1551,
      "支支支": 1552,
      "流流流流": 1553,
      "尿你": 1554,
      "改换": 1555,
      "扇扇扇": 1556,
      "班班": 1557,
      "外吗": 1558,
      "忆忆": 1559,
      "疗疗": 1560,
      "板值": 1561,
      "哈哈": 1562,
      "宦健": 1563,
      "命命命": 1564,
      "试试": 1565,
      "来来": 1566,
      "旨巴": 1567,
      "党党": 1568,
      "感感": 1569,
      "议看": 1570,
      "运尔": 1571,
      "于向": 1572,
      "熹照": 1573,
      "围围": 1574,
      "园园": 1575,
      "言理": 1576,
      "每些": 1577,
      "业巴": 1578,
      "两份": 1579,
      "楚害": 1580,
      "仁仁": 1581,
      "直直": 1582,
      "问发": 1583,
      "大邃": 1584,
      "层层层层层": 1585,
      "初初": 1586,
      "列列": 1587,
      "候候": 1588,
      "间间": 1589,
      "比比比": 1590,
      "侧发": 1591,
      "后后后后": 1592,
      "质质质": 1593,
      "锈死": 1594,
      "叫层": 1595,
      "长长": 1596,
      "力经": 1597,
      "报报": 1598,
      "队队队": 1599,
      "于你": 1600,
      "从从": 1601,
      "言镰": 1602,
      "注浏": 1603,
      "凡浏": 1604,
      "会会": 1605,
      "承承承承": 1606,
      "热热": 1607,
      "份份份": 1608,
      "吧吧吧吧": 1609,
      "除除除除除除": 1610,
      "性性": 1611,
      "部部部": 1612,
      "择择择": 1613,
      "界界": 1614,
      "侧侧源": 1615,
      "显吟": 1616,
      "越住": 1617,
      "德蚌": 1618,
      "她晚": 1619,
      "外且": 1620,
      "因目": 1621,
      "业正": 1622,
      "箱箱箱": 1623,
      "由后": 1624,
      "自自自": 1625,
      "获获": 1626,
      "序改": 1627,
      "复胺": 1628,
      "主主": 1629,
      "母母": 1630,
      "小小小": 1631,
      "己行": 1632,
      "做及": 1633,
      "响响": 1634,
      "正正正": 1635,
      "速速速": 1636,
      "施施施": 1637,
      "存存": 1638,
      "底与": 1639,
      "控控": 1640,
      "查查": 1641,
      "应应应": 1642,
      "换位": 1643,
      "者者": 1644,
      "点欢": 1645,
      "由门": 1646,
      "琢及": 1647,
      "這浏": 1648,
      "尿什": 1649,
      "罗罗": 1650,
      "式式": 1651,
      "采采": 1652,
      "巴果": 1653,
      "研向": 1654,
      "两流": 1655,
      "超吊": 1656,
      "计使": 1657,
      "团熹": 1658,
      "分分": 1659,
      "眼眼": 1660,
      "戍值": 1661,
      "概概": 1662,
      "考考考考考考考考": 1663,
      "角角角": 1664,
      "月月": 1665,
      "周周周": 1666,
      "置置置": 1667,
      "左左": 1668,
      "它它": 1669,
      "论关": 1670,
      "箱人": 1671,
      "社社": 1672,
      "直还": 1673,
      "哺哺": 1674,
      "样卉": 1675,
      "管原": 1676,
      "卡卡": 1677,
      "牺可": 1678,
      "已已": 1679,
      "高高高高高高高高高": 1680,
      "除除除除除除除除除除除除除除除除": 1681,
      "反羊": 1682,
      "费费": 1683,
      "打正": 1684,
      "象象": 1685,
      "婚婚": 1686,
      "动动": 1687,
      "员员": 1688,
      "本本本本本本本本": 1689,
      "声声": 1690,
      "硝硝硝": 1691,
      "有有有有": 1692,
      "平平": 1693,
      "计目": 1694,
      "啊高": 1695,
      "行个": 1696,
      "税税": 1697,
      "看据": 1698,
      "数数数数数数数数": 1699,
      "胧胧胧胧": 1700,
      "边硝": 1701,
      "右北": 1702,
      "素素": 1703,
      "撸健": 1704,
      "齐齐齐": 1705,
      "拉拉拉": 1706,
      "证证证证": 1707,
      "汉补": 1708,
      "看处": 1709,
      "队险": 1710,
      "消消": 1711,
      "县害": 1712,
      "全全全": 1713,
      "尔村": 1714,
      "再再再": 1715,
      "句句": 1716,
      "磋磋磋": 1717,
      "卉卉": 1718,
      "时水": 1719,
      "做远": 1720,
      "编编": 1721,
      "落落": 1722,
      "书书书书": 1723,
      "厢满": 1724,
      "画画": 1725,
      "高高高高高高高高高高": 1726,
      "习源": 1727,
      "选选": 1728,
      "你向": 1729,
      "过馋": 1730,
      "根根": 1731,
      "析满": 1732,
      "器巴": 1733,
      "门宦": 1734,
      "两坝": 1735,
      "查改": 1736,
      "压压": 1737,
      "科科科": 1738,
      "汉啊": 1739,
      "款型": 1740,
      "显桃": 1741,
      "击击住": 1742,
      "加加": 1743,
      "害害害": 1744,
      "镰言": 1745,
      "居居居居居居居居": 1746,
      "熹利": 1747,
      "如如如": 1748,
      "控观": 1749,
      "奖奖": 1750,
      "脱脱脱": 1751,
      "遭浦": 1752,
      "论位": 1753,
      "火火": 1754,
      "然然": 1755,
      "爽爽爽爽爽爽爽爽": 1756,
      "楼楼楼楼楼楼楼楼楼楼楼楼楼楼楼楼楼楼楼楼楼楼楼楼楼楼楼楼楼楼楼楼": 1757,
      "啊啊啊啊啊啊啊": 1758,
      "宾值": 1759,
      "除福": 1760,
      "发源": 1761,
      "厄厄厄": 1762,
      "言言": 1763,
      "进进": 1764,
      "识刚": 1765,
      "织织": 1766,
      "晚舒": 1767,
      "药利": 1768,
      "汪于": 1769,
      "续续": 1770,
      "充充": 1771,
      "非非非": 1772,
      "语语": 1773,
      "水水": 1774,
      "宾楚": 1775,
      "期期": 1776,
      "八八八": 1777,
      "除叫": 1778,
      "远远远": 1779,
      "粉被": 1780,
      "锈技": 1781,
      "底傻": 1782,
      "健宦": 1783,
      "支支支支": 1784,
      "报光": 1785,
      "除啊": 1786,
      "按按按": 1787,
      "亚亚": 1788,
      "管服": 1789,
      "棍棍": 1790,
      "盆补": 1791,
      "身身身": 1792,
      "换工": 1793,
      "海海海": 1794,
      "势序": 1795,
      "换哪": 1796,
      "于于于": 1797,
      "吟作": 1798,
      "阱肛": 1799,
      "队尿": 1800,
      "事事事": 1801,
      "奇奇": 1802,
      "戍舒": 1803,
      "像像": 1804,
      "由宦": 1805,
      "片片片": 1806,
      "时窝": 1807,
      "己己己": 1808,
      "北北北": 1809,
      "卉维": 1810,
      "白白白": 1811,
      "标标标": 1812,
      "红先": 1813,
      "戏戏": 1814,
      "這吊": 1815,
      "票专": 1816,
      "吧吧吧": 1817,
      "局撸": 1818,
      "份造": 1819,
      "控婚": 1820,
      "尔专": 1821,
      "效效效": 1822,
      "琢哪": 1823,
      "入入": 1824,
      "高合": 1825,
      "打巴": 1826,
      "芋税": 1827,
      "叫叫叫叫叫叫": 1828,
      "子子子": 1829,
      "胧如": 1830,
      "心谁": 1831,
      "习关": 1832,
      "果果": 1833,
      "路盘": 1834,
      "力太": 1835,
      "拿拿": 1836,
      "楚楚楚": 1837,
      "戍晚": 1838,
      "书层": 1839,
      "早早早": 1840,
      "章章章章": 1841,
      "约约": 1842,
      "裔裔公": 1843,
      "目哪": 1844,
      "侧侧侧": 1845,
      "剌迟": 1846,
      "村听": 1847,
      "锈没": 1848,
      "发论": 1849,
      "网类": 1850,
      "之趁": 1851,
      "议光": 1852,
      "线线": 1853,
      "易易易": 1854,
      "阿阿阿": 1855,
      "原原": 1856,
      "藏藏藏藏藏藏藏藏": 1857,
      "改计": 1858,
      "确确确确确确": 1859,
      "古尿": 1860,
      "限限": 1861,
      "传婚": 1862,
      "喜喜喜": 1863,
      "有尔记": 1864,
      "气气": 1865,
      "说白": 1866,
      "做半": 1867,
      "或器": 1868,
      "五五": 1869,
      "力牌": 1870,
      "芋浏": 1871,
      "镰很": 1872,
      "利熹熹": 1873,
      "宾喜": 1874,
      "力刚": 1875,
      "用流": 1876,
      "祀厄": 1877,
      "书除": 1878,
      "盆决": 1879,
      "英责": 1880,
      "传身": 1881,
      "词词": 1882,
      "据看": 1883,
      "完完完": 1884,
      "古动": 1885,
      "厢吗": 1886,
      "村并": 1887,
      "政置": 1888,
      "全噶": 1889,
      "闪闪": 1890,
      "出必": 1891,
      "之汪": 1892,
      "速速金": 1893,
      "免免": 1894,
      "均均": 1895,
      "断巴": 1896,
      "究污": 1897,
      "上强": 1898,
      "显哺": 1899,
      "确级": 1900,
      "际戍": 1901,
      "大大大": 1902,
      "尔尔型": 1903,
      "高高高高高高高高高高高": 1904,
      "解解": 1905,
      "科地": 1906,
      "治治": 1907,
      "后帮": 1908,
      "协协协": 1909,
      "注這": 1910,
      "两吟": 1911,
      "也越": 1912,
      "铝婚": 1913,
      "华没": 1914,
      "超中": 1915,
      "里里": 1916,
      "过十": 1917,
      "水序": 1918,
      "指指": 1919,
      "箱因": 1920,
      "前前": 1921,
      "裔外": 1922,
      "向向向": 1923,
      "医医": 1924,
      "改目": 1925,
      "最最": 1926,
      "教教": 1927,
      "与职": 1928,
      "机机": 1929,
      "何州": 1930,
      "士士士": 1931,
      "禺尔": 1932,
      "公公": 1933,
      "表表": 1934,
      "检检": 1935,
      "态态": 1936,
      "戊戊戊戊": 1937,
      "绝绝绝绝绝": 1938,
      "什你": 1939,
      "晚晚己": 1940,
      "走走走": 1941,
      "而而": 1942,
      "死死死死": 1943,
      "满博": 1944,
      "配配配": 1945,
      "型风": 1946,
      "知团": 1947,
      "们资": 1948,
      "除除除除除除除": 1949,
      "居居居": 1950,
      "熹写": 1951,
      "宝下": 1952,
      "辈辈辈": 1953,
      "件听": 1954,
      "录录": 1955,
      "业康": 1956,
      "晚值": 1957,
      "超逸": 1958,
      "迟包": 1959,
      "铝观": 1960,
      "住织": 1961,
      "计智": 1962,
      "些些": 1963,
      "邯邯": 1964,
      "单没": 1965,
      "切切切": 1966,
      "质质质质": 1967,
      "特特": 1968,
      "女戍": 1969,
      "古先": 1970,
      "捞捞": 1971,
      "楚向": 1972,
      "迟效": 1973,
      "计工": 1974,
      "汉层": 1975,
      "政所": 1976,
      "傻語": 1977,
      "死锈": 1978,
      "路照": 1979,
      "研研": 1980,
      "用字": 1981,
      "你于": 1982,
      "还欢": 1983,
      "版版版": 1984,
      "祀喜": 1985,
      "扇扇扇扇": 1986,
      "直新": 1987,
      "牌普": 1988,
      "错完": 1989,
      "底北": 1990,
      "导团": 1991,
      "窝作": 1992,
      "且正": 1993,
      "找票": 1994,
      "志志": 1995,
      "与德": 1996,
      "步步步": 1997,
      "白拨": 1998,
      "字字字": 1999,
      "半半": 2000,
      "取取取": 2001,
      "健旨": 2002,
      "哺报": 2003,
      "站站": 2004,
      "置所": 2005,
      "巴康": 2006,
      "型型": 2007,
      "桃显": 2008,
      "行却": 2009,
      "水浦": 2010,
      "叫楼": 2011,
      "真真": 2012,
      "见见": 2013,
      "州州": 2014,
      "楼楼楼楼楼楼楼楼楼": 2015,
      "容经": 2016,
      "宦子": 2017,
      "更老": 2018,
      "除层": 2019,
      "濡濡": 2020,
      "乎乎乎": 2021,
      "笙笙笙笙笙笙笙笙": 2022,
      "羊光": 2023,
      "势点": 2024,
      "用后": 2025,
      "习论": 2026,
      "率部": 2027,
      "反报": 2028,
      "确没": 2029,
      "器动": 2030,
      "及英": 2031,
      "识识识": 2032,
      "限买": 2033,
      "学值": 2034,
      "双位": 2035,
      "必所": 2036,
      "积积": 2037,
      "大非": 2038,
      "清早": 2039,
      "药局": 2040,
      "箱箱目": 2041,
      "话莎": 2042,
      "扇两": 2043,
      "傻宾": 2044,
      "疑疑疑": 2045,
      "高高高高高高高高高高高高": 2046,
      "列线": 2047,
      "点点点": 2048,
      "价海海": 2049,
      "景景景景": 2050,
      "里决": 2051,
      "尿动": 2052,
      "啊合": 2053,
      "告际": 2054,
      "啊下": 2055,
      "单华": 2056,
      "施施施施": 2057,
      "路突": 2058,
      "舒舒舒舒": 2059,
      "高本": 2060,
      "城补": 2061,
      "单本": 2062,
      "骨患": 2063,
      "监监": 2064,
      "动什": 2065,
      "开开开开": 2066,
      "适适适": 2067,
      "胺少": 2068,
      "噶噶噶": 2069,
      "准准": 2070,
      "齐齐齐齐": 2071,
      "蚌德": 2072,
      "的的": 2073,
      "境境境境": 2074,
      "吟两": 2075,
      "凡税": 2076,
      "打业": 2077,
      "汪向": 2078,
      "理很": 2079,
      "先红": 2080,
      "己条": 2081,
      "舜舜": 2082,
      "击击击击": 2083,
      "双工": 2084,
      "斥斥": 2085,
      "证证证": 2086,
      "县楚": 2087,
      "两两两两": 2088,
      "或巴": 2089,
      "晚她": 2090,
      "李磋": 2091,
      "容每": 2092,
      "智每": 2093,
      "分知知": 2094,
      "利团团团": 2095,
      "箱侧": 2096,
      "沌沌沌": 2097,
      "律律": 2098,
      "健然": 2099,
      "芋超": 2100,
      "有有型": 2101,
      "因换": 2102,
      "祀祀祀": 2103,
      "析析": 2104,
      "天天天天天": 2105,
      "由帮": 2106,
      "史转": 2107,
      "切喜": 2108,
      "药药药": 2109,
      "今今": 2110,
      "商个": 2111,
      "排排": 2112,
      "层层层层层层": 2113,
      "提原": 2114,
      "期密": 2115,
      "地果": 2116,
      "动器": 2117,
      "财财财财": 2118,
      "呢呢": 2119,
      "理言": 2120,
      "如公": 2121,
      "用用用用": 2122,
      "感是": 2123,
      "确确确确确确确确": 2124,
      "所白": 2125,
      "叫高": 2126,
      "重重": 2127,
      "巴旨": 2128,
      "北德德": 2129,
      "晚戍": 2130,
      "窝时": 2131,
      "蚌极": 2132,
      "发关": 2133,
      "门类": 2134,
      "叫绝": 2135,
      "趁傻": 2136,
      "阱网": 2137,
      "士噶": 2138,
      "使路": 2139,
      "及半": 2140,
      "熹拉": 2141,
      "比你": 2142,
      "食食食": 2143,
      "识巴": 2144,
      "料料": 2145,
      "礼礼礼": 2146,
      "除高": 2147,
      "却纱": 2148,
      "熹熹熹熹": 2149,
      "错包": 2150,
      "底德": 2151,
      "解张": 2152,
      "国国": 2153,
      "城城城": 2154,
      "仅仅": 2155,
      "外儿": 2156,
      "九九": 2157,
      "厢满满": 2158,
      "除楼": 2159,
      "榆榆": 2160,
      "资资": 2161,
      "羊羊羊羊": 2162,
      "捧到": 2163,
      "车牌": 2164,
      "日日日日": 2165,
      "部盟": 2166,
      "问查": 2167,
      "反议": 2168,
      "标标标标": 2169,
      "山妇": 2170,
      "流两": 2171,
      "言苏": 2172,
      "待待待": 2173,
      "确锈": 2174,
      "如织": 2175,
      "序到": 2176,
      "直必": 2177,
      "吟报": 2178,
      "哪写": 2179,
      "别务": 2180,
      "除书": 2181,
      "问习": 2182,
      "河河": 2183,
      "尔件": 2184,
      "什汪": 2185,
      "戊戊戊": 2186,
      "吟份": 2187,
      "设设": 2188,
      "太少": 2189,
      "帮宦": 2190,
      "也音": 2191,
      "羊子": 2192,
      "基基": 2193,
      "由管": 2194,
      "楚协": 2195,
      "其政": 2196,
      "餐新": 2197,
      "部责": 2198,
      "史周": 2199,
      "班管": 2200,
      "哪英": 2201,
      "壑壑": 2202,
      "马马": 2203,
      "承啊": 2204,
      "角病": 2205,
      "导团团": 2206,
      "瑚队": 2207,
      "高啊啊": 2208,
      "收收": 2209,
      "专村": 2210,
      "螺螺": 2211,
      "研什": 2212,
      "稻稻": 2213,
      "流份": 2214,
      "高高高高高高高高高高高高高": 2215,
      "数数数数数": 2216,
      "能能能": 2217,
      "早取": 2218,
      "命命命命命命命命": 2219,
      "可税": 2220,
      "本本本本本": 2221,
      "楼楼楼楼楼楼楼楼楼楼": 2222,
      "便便": 2223,
      "作窝是": 2224,
      "口口": 2225,
      "做心": 2226,
      "否否": 2227,
      "易嘤": 2228,
      "维维维": 2229,
      "专件": 2230,
      "计接": 2231,
      "答答": 2232,
      "箱换": 2233,
      "半英": 2234,
      "即即": 2235,
      "规规": 2236,
      "王王": 2237,
      "幂幂": 2238,
      "打器": 2239,
      "度浦": 2240,
      "交交交交": 2241,
      "作线": 2242,
      "己统": 2243,
      "双继": 2244,
      "知始": 2245,
      "彰彰彰": 2246,
      "等等": 2247,
      "力称": 2248,
      "率议": 2249,
      "电后": 2250,
      "吟坝": 2251,
      "里起": 2252,
      "确天": 2253,
      "邃盘": 2254,
      "外裔": 2255,
      "金德": 2256,
      "集集": 2257,
      "农农农": 2258,
      "够够够够够够够够": 2259,
      "业业业": 2260,
      "济济": 2261,
      "根干": 2262,
      "清转": 2263,
      "果巴": 2264,
      "造实": 2265,
      "价满满": 2266,
      "远远局": 2267,
      "少学": 2268,
      "无无": 2269,
      "晋刚": 2270,
      "且业": 2271,
      "酒酒酒酒": 2272,
      "再极": 2273,
      "在条": 2274,
      "比比比比": 2275,
      "語汪": 2276,
      "可谁": 2277,
      "康康康": 2278,
      "型听": 2279,
      "达税": 2280,
      "蚌蚌蚌": 2281,
      "且险": 2282,
      "戍戍戍": 2283,
      "说说": 2284,
      "餐餐餐": 2285,
      "多多": 2286,
      "之尿": 2287,
      "琢心": 2288,
      "要要": 2289,
      "显显显": 2290,
      "视大": 2291,
      "死脱": 2292,
      "啊汉": 2293,
      "核到": 2294,
      "击速": 2295,
      "势势势": 2296,
      "云云": 2297,
      "有有有": 2298,
      "管桃": 2299,
      "种亲": 2300,
      "生生": 2301,
      "置白": 2302,
      "宦帮": 2303,
      "石石": 2304,
      "什研": 2305,
      "遭遭": 2306,
      "记风": 2307,
      "路长": 2308,
      "没脑": 2309,
      "报看": 2310,
      "形越": 2311,
      "效所": 2312,
      "职蚌": 2313,
      "音音": 2314,
      "种地": 2315,
      "北女": 2316,
      "向取": 2317,
      "笙笙笙笙笙": 2318,
      "办办": 2319,
      "份份实": 2320,
      "十十十十": 2321,
      "京污": 2322,
      "传控": 2323,
      "嘤白": 2324,
      "有有尔": 2325,
      "福除": 2326,
      "人继": 2327,
      "脂宦": 2328,
      "尔尔尔": 2329,
      "士书": 2330,
      "被制": 2331,
      "整半": 2332,
      "必白": 2333,
      "线作": 2334,
      "浏中": 2335,
      "论继": 2336,
      "满海": 2337,
      "羊健": 2338,
      "嘤嘤嘤嘤": 2339,
      "近近近": 2340,
      "看看看": 2341,
      "并并": 2342,
      "于害": 2343,
      "卉因": 2344,
      "叫叫叫叫叫叫叫": 2345,
      "时条": 2346,
      "局局局": 2347,
      "团利": 2348,
      "旨果": 2349,
      "按按按按": 2350,
      "打打正": 2351,
      "小再": 2352,
      "在己": 2353,
      "药磋": 2354,
      "力指": 2355,
      "锈章": 2356,
      "噶计": 2357,
      "漓啊": 2358,
      "芋這": 2359,
      "价吗": 2360,
      "白白嘤": 2361,
      "盆箱": 2362,
      "除阿": 2363,
      "找解": 2364,
      "熹英": 2365,
      "我我我": 2366,
      "段段": 2367,
      "向致": 2368,
      "慢慢": 2369,
      "是窝": 2370,
      "论突": 2371,
      "你先": 2372,
      "择层": 2373,
      "于完": 2374,
      "太商": 2375,
      "有硝": 2376,
      "型件": 2377,
      "舒值": 2378,
      "问样": 2379,
      "系系系": 2380,
      "之业": 2381,
      "室室": 2382,
      "胧式": 2383,
      "诲金": 2384,
      "言镰镰": 2385,
      "有禺": 2386,
      "找磋": 2387,
      "动尿": 2388,
      "点配": 2389,
      "却餐": 2390,
      "星星星": 2391,
      "汉盆": 2392,
      "哪哪": 2393,
      "义刚": 2394,
      "叫爽": 2395,
      "圈圈": 2396,
      "只只": 2397,
      "趁职": 2398,
      "宦由": 2399,
      "决上": 2400,
      "因计": 2401,
      "凡每": 2402,
      "远路": 2403,
      "锈系": 2404,
      "知分": 2405,
      "为为": 2406,
      "与剌": 2407,
      "学己": 2408,
      "巴业": 2409,
      "求补": 2410,
      "之仁": 2411,
      "整及": 2412,
      "育育育": 2413,
      "前性": 2414,
      "傻蚌": 2415,
      "团磋": 2416,
      "正器": 2417,
      "知知知知": 2418,
      "权权": 2419,
      "没华": 2420,
      "不查": 2421,
      "门右": 2422,
      "德德北": 2423,
      "晋牌": 2424,
      "原她": 2425,
      "太称": 2426,
      "高高高高高高高高高高高高高高": 2427,
      "弩术": 2428,
      "脑层": 2429,
      "些速金": 2430,
      "菩菩": 2431,
      "利药药": 2432,
      "取共": 2433,
      "得语": 2434,
      "高高啊": 2435,
      "下箱": 2436,
      "康业": 2437,
      "箱箱换": 2438,
      "嘤所": 2439,
      "再再再再": 2440,
      "认祀": 2441,
      "小戍": 2442,
      "电由": 2443,
      "东东": 2444,
      "择官": 2445,
      "限水": 2446,
      "語楚": 2447,
      "确开": 2448,
      "她那": 2449,
      "容力": 2450,
      "团拉": 2451,
      "同同": 2452,
      "队瑚": 2453,
      "取少": 2454,
      "苏言": 2455,
      "民被": 2456,
      "浦改": 2457,
      "协污": 2458,
      "伤伤": 2459,
      "息息息息": 2460,
      "净净": 2461,
      "善善": 2462,
      "爱谁": 2463,
      "队比": 2464,
      "层层层层层层层层": 2465,
      "应应应应": 2466,
      "服管": 2467,
      "卫吗": 2468,
      "宾县": 2469,
      "类克": 2470,
      "琢半": 2471,
      "凡中": 2472,
      "型读": 2473,
      "许许": 2474,
      "到厢": 2475,
      "技高": 2476,
      "找熹": 2477,
      "造更": 2478,
      "宝补": 2479,
      "楼楼楼楼楼楼楼楼楼楼楼": 2480,
      "点势": 2481,
      "汪楚": 2482,
      "问改": 2483,
      "走走走走": 2484,
      "先你": 2485,
      "撸羊": 2486,
      "制作": 2487,
      "确单": 2488,
      "旨健": 2489,
      "官漓": 2490,
      "实强": 2491,
      "斯斯": 2492,
      "确华": 2493,
      "苏镰": 2494,
      "取向": 2495,
      "患易": 2496,
      "超演": 2497,
      "除脑": 2498,
      "元示": 2499,
      "裔裔外": 2500,
      "利也": 2501,
      "发委": 2502,
      "报然": 2503,
      "哺健": 2504,
      "邃邃": 2505,
      "病病病": 2506,
      "黄黄": 2507,
      "些金": 2508,
      "换每": 2509,
      "包包包": 2510,
      "你你你你": 2511,
      "介介介介介": 2512,
      "粉从": 2513,
      "遭水": 2514,
      "内控": 2515,
      "上务": 2516,
      "路英": 2517,
      "語宾": 2518,
      "如住": 2519,
      "据处": 2520,
      "技锈": 2521,
      "绝绝绝绝绝绝": 2522,
      "铝中": 2523,
      "与与与": 2524,
      "毕毕毕": 2525,
      "汇莎": 2526,
      "后由由": 2527,
      "公迟": 2528,
      "们政": 2529,
      "击金": 2530,
      "下补": 2531,
      "纱纱": 2532,
      "还曲": 2533,
      "地科": 2534,
      "字孩": 2535,
      "量大": 2536,
      "康与": 2537,
      "去去": 2538,
      "干科": 2539,
      "凡位": 2540,
      "门由": 2541,
      "被两": 2542,
      "些例": 2543,
      "普牌": 2544,
      "字帮": 2545,
      "果底": 2546,
      "房因": 2547,
      "造份": 2548,
      "宝啊": 2549,
      "心心心": 2550,
      "然线": 2551,
      "器器器": 2552,
      "说必": 2553,
      "造环": 2554,
      "层全": 2555,
      "识复": 2556,
      "送送": 2557,
      "少楚": 2558,
      "是己": 2559,
      "结结结结结": 2560,
      "管阱": 2561,
      "考高": 2562,
      "件件": 2563,
      "点镰": 2564,
      "除支": 2565,
      "侧侧关": 2566,
      "论使": 2567,
      "福啊": 2568,
      "叫命": 2569,
      "板协": 2570,
      "制制制": 2571,
      "达做": 2572,
      "没锈": 2573,
      "面面面": 2574,
      "旨复": 2575,
      "之险": 2576,
      "层书": 2577,
      "传传传": 2578,
      "士官": 2579,
      "二二": 2580,
      "转义": 2581,
      "终终": 2582,
      "可心": 2583,
      "月邃": 2584,
      "型村村": 2585,
      "自自自自自自自自": 2586,
      "极喜": 2587,
      "个商": 2588,
      "于版": 2589,
      "這禺": 2590,
      "转称": 2591,
      "合高": 2592,
      "后后由": 2593,
      "用用显": 2594,
      "下啊": 2595,
      "党彰": 2596,
      "半及": 2597,
      "调城": 2598,
      "听读": 2599,
      "吟时": 2600,
      "后用": 2601,
      "爽爽爽爽爽": 2602,
      "官官官官": 2603,
      "友友友友": 2604,
      "能能能能": 2605,
      "州何": 2606,
      "产胺": 2607,
      "条条条": 2608,
      "共处": 2609,
      "厢吗吗": 2610,
      "质啊": 2611,
      "噶箱": 2612,
      "她原": 2613,
      "小德": 2614,
      "汪什": 2615,
      "窝条": 2616,
      "傻戍": 2617,
      "部同": 2618,
      "票找": 2619,
      "气胺": 2620,
      "后桃": 2621,
      "么么": 2622,
      "目满": 2623,
      "坝两": 2624,
      "宾語": 2625,
      "弩网": 2626,
      "合啊": 2627,
      "达琢": 2628,
      "开天": 2629,
      "解音": 2630,
      "电电电": 2631,
      "厢智": 2632,
      "所拨": 2633,
      "吗海": 2634,
      "团药": 2635,
      "境境境": 2636,
      "吟彰": 2637,
      "高高高高高高高高高高高高高高高": 2638,
      "确吧": 2639,
      "分长": 2640,
      "确笙": 2641,
      "税哪": 2642,
      "四病": 2643,
      "清称": 2644,
      "有村": 2645,
      "死章": 2646,
      "正打": 2647,
      "汉漓": 2648,
      "些球": 2649,
      "支高": 2650,
      "时份": 2651,
      "开华": 2652,
      "易白": 2653,
      "德德德德": 2654,
      "种刚": 2655,
      "路省": 2656,
      "可吊": 2657,
      "我啊": 2658,
      "报最": 2659,
      "门门门": 2660,
      "显两": 2661,
      "队队队队": 2662,
      "通通": 2663,
      "管右": 2664,
      "示里": 2665,
      "涡涡涡": 2666,
      "看感": 2667,
      "补待": 2668,
      "科科科科": 2669,
      "又指": 2670,
      "目位": 2671,
      "太买": 2672,
      "争污": 2673,
      "包效": 2674,
      "队完": 2675,
      "信啊": 2676,
      "山山山": 2677,
      "装学": 2678,
      "向你": 2679,
      "厢析": 2680,
      "外外外": 2681,
      "宾协": 2682,
      "史识": 2683,
      "叫叫叫叫叫叫叫叫叫叫叫叫叫叫叫叫": 2684,
      "少商": 2685,
      "青青": 2686,
      "绝楼": 2687,
      "究究究": 2688,
      "确确确确确确确": 2689,
      "儿汉": 2690,
      "济房": 2691,
      "叫层层": 2692,
      "也也": 2693,
      "很理": 2694,
      "太元": 2695,
      "值值值值": 2696,
      "专村村": 2697,
      "這演": 2698,
      "傻职": 2699,
      "拉熹": 2700,
      "厢海海": 2701,
      "级级级级级": 2702,
      "必置": 2703,
      "镰镰镰": 2704,
      "流彰": 2705,
      "知团团": 2706,
      "换力": 2707,
      "漓漓漓漓漓": 2708,
      "噶侧": 2709,
      "边硝硝": 2710,
      "向版": 2711,
      "盆盆盆盆": 2712,
      "所曲": 2713,
      "尔硝": 2714,
      "取得": 2715,
      "系福": 2716,
      "色色": 2717,
      "克克": 2718,
      "还病": 2719,
      "早清": 2720,
      "箱房": 2721,
      "频频": 2722,
      "买元": 2723,
      "流用": 2724,
      "身已": 2725,
      "则备": 2726,
      "税运": 2727,
      "闪你": 2728,
      "吗外": 2729,
      "容组": 2730,
      "直欢": 2731,
      "支技": 2732,
      "脑全": 2733,
      "血血": 2734,
      "果刚": 2735,
      "化化": 2736,
      "福福福福福": 2737,
      "礼礼礼礼": 2738,
      "康职": 2739,
      "拉拉拉拉": 2740,
      "捧序": 2741,
      "本高": 2742,
      "维承": 2743,
      "公织": 2744,
      "不习": 2745,
      "护护护": 2746,
      "远药": 2747,
      "死天": 2748,
      "所嘤": 2749,
      "引十": 2750,
      "说置": 2751,
      "切值": 2752,
      "行性": 2753,
      "远局局": 2754,
      "箱箱计": 2755,
      "被桃": 2756,
      "蚌剌": 2757,
      "记游": 2758,
      "牌北": 2759,
      "报议": 2760,
      "县县县": 2761,
      "别上": 2762,
      "介介介介介介介介介介介介介介介介": 2763,
      "言理理": 2764,
      "月盘": 2765,
      "户户": 2766,
      "建先": 2767,
      "可可可": 2768,
      "有款": 2769,
      "右菩": 2770,
      "楼楼楼楼楼楼楼楼楼楼楼楼": 2771,
      "博越": 2772,
      "结级": 2773,
      "给给": 2774,
      "虽虽": 2775,
      "便点": 2776,
      "古你": 2777,
      "动之": 2778,
      "普骁": 2779,
      "达超": 2780,
      "小小小小": 2781,
      "个纱": 2782,
      "古器": 2783,
      "显用": 2784,
      "华华华华华": 2785,
      "改继": 2786,
      "建什": 2787,
      "术术术": 2788,
      "息息息": 2789,
      "扇字": 2790,
      "巴打": 2791,
      "确辈": 2792,
      "干干": 2793,
      "留留": 2794,
      "防防防": 2795,
      "爸于": 2796,
      "离到": 2797,
      "辈辈辈辈": 2798,
      "鲸却": 2799,
      "经经": 2800,
      "深源": 2801,
      "凡超": 2802,
      "康迟": 2803,
      "板己": 2804,
      "宝质": 2805,
      "是限": 2806,
      "除绝": 2807,
      "身传": 2808,
      "子健": 2809,
      "馋馋馋": 2810,
      "没群": 2811,
      "农层": 2812,
      "型村": 2813,
      "形始": 2814,
      "月维": 2815,
      "沌沌沌沌": 2816,
      "京京京": 2817,
      "记读": 2818,
      "益益": 2819,
      "除漓": 2820,
      "周地": 2821,
      "鲸统": 2822,
      "叫自": 2823,
      "研汪": 2824,
      "非非非非": 2825,
      "数城": 2826,
      "房房房": 2827,
      "苏很": 2828,
      "力前": 2829,
      "补噶": 2830,
      "弩弩弩": 2831,
      "六六六": 2832,
      "度买": 2833,
      "裔裔裔公": 2834,
      "风告": 2835,
      "显流": 2836,
      "心哪": 2837,
      "适适适适": 2838,
      "子宦": 2839,
      "水彰": 2840,
      "部部部部": 2841,
      "轻轻": 2842,
      "裔且": 2843,
      "力义": 2844,
      "锈天": 2845,
      "类资": 2846,
      "本承": 2847,
      "打打打打": 2848,
      "市市市": 2849,
      "发容": 2850,
      "叫叫层": 2851,
      "向研": 2852,
      "直点": 2853,
      "打由": 2854,
      "病四": 2855,
      "器正": 2856,
      "坝份": 2857,
      "专张": 2858,
      "羊加": 2859,
      "己舒": 2860,
      "宾戍": 2861,
      "门阱": 2862,
      "查源": 2863,
      "论智": 2864,
      "每越": 2865,
      "被水": 2866,
      "究回": 2867,
      "科亲": 2868,
      "酒酒酒": 2869,
      "厢海": 2870,
      "势玩": 2871,
      "从作": 2872,
      "着着": 2873,
      "看吟": 2874,
      "队你你": 2875,
      "单应": 2876,
      "剧车": 2877,
      "芋芋": 2878,
      "菏晋": 2879,
      "技技技技技": 2880,
      "险之": 2881,
      "民彰": 2882,
      "属属": 2883,
      "例例": 2884,
      "府啊": 2885,
      "配点": 2886,
      "园求": 2887,
      "喜厄": 2888,
      "是更": 2889,
      "记班": 2890,
      "锈开": 2891,
      "子旨": 2892,
      "器尿": 2893,
      "版镇": 2894,
      "城箱": 2895,
      "厢接": 2896,
      "术剌": 2897,
      "交交交": 2898,
      "果趁": 2899,
      "际她": 2900,
      "利磋": 2901,
      "市市市市市市市市": 2902,
      "线给": 2903,
      "奖噶": 2904,
      "环里": 2905,
      "与蚌": 2906,
      "月大": 2907,
      "板值值": 2908,
      "人琢": 2909,
      "什什什": 2910,
      "褐褐褐": 2911,
      "历历历": 2912,
      "双莎": 2913,
      "扇显": 2914,
      "普再": 2915,
      "背背": 2916,
      "势改": 2917,
      "势兴": 2918,
      "是条": 2919,
      "笙级": 2920,
      "粉读": 2921,
      "器业": 2922,
      "置置置置": 2923,
      "对对对": 2924,
      "板楚": 2925,
      "远远远远": 2926,
      "老决": 2927,
      "正正正正": 2928,
      "运型": 2929,
      "报据": 2930,
      "元买": 2931,
      "专局": 2932,
      "能啊": 2933,
      "光然": 2934,
      "种旨": 2935,
      "晚晚晚晚": 2936,
      "镰镰很": 2937,
      "两两份": 2938,
      "啊啊高": 2939,
      "速击": 2940,
      "取早": 2941,
      "板晚": 2942,
      "十责": 2943,
      "刚底": 2944,
      "记桃": 2945,
      "赛章": 2946,
      "天天天天天天": 2947,
      "完角": 2948,
      "税尔": 2949,
      "书全": 2950,
      "责责责": 2951,
      "害回": 2952,
      "宾祀": 2953,
      "切舒": 2954,
      "单结": 2955,
      "菩组": 2956,
      "密找": 2957,
      "数官": 2958,
      "巴刚": 2959,
      "视非": 2960,
      "先早": 2961,
      "楼高": 2962,
      "项项": 2963,
      "经牌": 2964,
      "疑士": 2965,
      "整做": 2966,
      "涡极": 2967,
      "白白所": 2968,
      "脱死": 2969,
      "作时": 2970,
      "文前": 2971,
      "府府府府府府府府": 2972,
      "将将将将": 2973,
      "除自": 2974,
      "计析": 2975,
      "宝汉": 2976,
      "换组": 2977,
      "度元": 2978,
      "款有": 2979,
      "人接": 2980,
      "时时时": 2981,
      "除质": 2982,
      "际告": 2983,
      "术卡": 2984,
      "线感": 2985,
      "你比": 2986,
      "没没没没没": 2987,
      "步啊": 2988,
      "帮后": 2989,
      "正尿": 2990,
      "欢改": 2991,
      "游其": 2992,
      "山深": 2993,
      "性餐": 2994,
      "十部": 2995,
      "切戍": 2996,
      "器或": 2997,
      "四曲": 2998,
      "硝尔": 2999,
      "演演": 3000,
      "样样": 3001,
      "目析": 3002,
      "道禺": 3003,
      "阱右": 3004,
      "橙橙橙橙": 3005,
      "病点": 3006,
      "熹熹照": 3007,
      "谁谁": 3008,
      "地地地": 3009,
      "武武武": 3010,
      "序发": 3011,
      "浏有": 3012,
      "织如": 3013,
      "网北": 3014,
      "指学": 3015,
      "转复": 3016,
      "温温": 3017,
      "骁晚": 3018,
      "处条": 3019,
      "职吃": 3020,
      "健仅": 3021,
      "叫够": 3022,
      "样厢": 3023,
      "板板板": 3024,
      "巴识": 3025,
      "部率": 3026,
      "票尔": 3027,
      "记管": 3028,
      "舜窝": 3029,
      "研语": 3030,
      "周则": 3031,
      "注观": 3032,
      "熹也": 3033,
      "福漓": 3034,
      "先建": 3035,
      "宝层": 3036,
      "切祀": 3037,
      "皮皮皮": 3038,
      "决污": 3039,
      "女小": 3040,
      "撸光": 3041,
      "帮由": 3042,
      "啊啊啊啊啊啊啊啊啊啊啊啊啊啊啊啊": 3043,
      "子脂": 3044,
      "技开": 3045,
      "研据": 3046,
      "名孩": 3047,
      "熹心": 3048,
      "护這": 3049,
      "胺气": 3050,
      "指个": 3051,
      "值舒": 3052,
      "芋牺": 3053,
      "另另": 3054,
      "兴兴兴": 3055,
      "状患": 3056,
      "知盘": 3057,
      "什尿": 3058,
      "铝逸": 3059,
      "技质": 3060,
      "告底": 3061,
      "分利": 3062,
      "商元": 3063,
      "身身身身": 3064,
      "坝条": 3065,
      "何划": 3066,
      "事高": 3067,
      "拿创": 3068,
      "蚌戍": 3069,
      "粉班": 3070,
      "盆噶": 3071,
      "和育": 3072,
      "过过过": 3073,
      "你闪": 3074,
      "取取取取": 3075,
      "坝看": 3076,
      "险于": 3077,
      "板祀": 3078,
      "刚牌": 3079,
      "取元": 3080,
      "下合": 3081,
      "少协": 3082,
      "神神神": 3083,
      "周亲": 3084,
      "粉民": 3085,
      "食食食食": 3086,
      "脑本": 3087,
      "餐点": 3088,
      "样因": 3089,
      "双英": 3090,
      "院院院": 3091,
      "房维": 3092,
      "路过": 3093,
      "施啊": 3094,
      "对效": 3095,
      "爽层": 3096,
      "南南南": 3097,
      "更示": 3098,
      "叫除除": 3099,
      "流吟": 3100,
      "开级": 3101,
      "刚右": 3102,
      "橙全": 3103,
      "在面": 3104,
      "待补": 3105,
      "向早": 3106,
      "经母": 3107,
      "度十": 3108,
      "剌剌剌": 3109,
      "病角": 3110,
      "说所": 3111,
      "知省": 3112,
      "先据": 3113,
      "华本": 3114,
      "书士": 3115,
      "采元": 3116,
      "芋做": 3117,
      "楼楼楼楼楼楼楼楼楼楼楼楼楼": 3118,
      "早早早早": 3119,
      "式织": 3120,
      "刚类": 3121,
      "周周周周": 3122,
      "量大大": 3123,
      "调全": 3124,
      "择噶": 3125,
      "戏动": 3126,
      "叫支": 3127,
      "源工": 3128,
      "数数数数数数": 3129,
      "群城": 3130,
      "吧没": 3131,
      "越击": 3132,
      "量非": 3133,
      "便配": 3134,
      "望配": 3135,
      "计计": 3136,
      "裔裔裔外": 3137,
      "票号": 3138,
      "看造": 3139,
      "汉高": 3140,
      "锈阿": 3141,
      "处共": 3142,
      "控中": 3143,
      "长背": 3144,
      "月供": 3145,
      "作原": 3146,
      "动现": 3147,
      "切厄": 3148,
      "汉官": 3149,
      "换米": 3150,
      "桃宦": 3151,
      "楼层": 3152,
      "习习": 3153,
      "忆新": 3154,
      "病欢": 3155,
      "使英": 3156,
      "胺汪": 3157,
      "现现现": 3158,
      "周科": 3159,
      "戊绝": 3160,
      "劈劈": 3161,
      "笙笙笙笙笙笙": 3162,
      "锈辈": 3163,
      "流显": 3164,
      "后字": 3165,
      "率责": 3166,
      "作提": 3167,
      "款概": 3168,
      "传非": 3169,
      "铝演": 3170,
      "双米": 3171,
      "出新": 3172,
      "宝书": 3173,
      "汇话": 3174,
      "她在": 3175,
      "创创创": 3176,
      "不发": 3177,
      "吟吟吟": 3178,
      "验验验": 3179,
      "望点": 3180,
      "桃遭": 3181,
      "想想": 3182,
      "党吟": 3183,
      "证够": 3184,
      "嘤妇": 3185,
      "路熹": 3186,
      "内内": 3187,
      "队队你": 3188,
      "华应": 3189,
      "戍祀": 3190,
      "且尿": 3191,
      "换英": 3192,
      "被时": 3193,
      "东骁": 3194,
      "后脂": 3195,
      "究致": 3196,
      "北网": 3197,
      "被遭": 3198,
      "海胧": 3199,
      "习容": 3200,
      "旨门": 3201,
      "打康": 3202,
      "该该该": 3203,
      "单单单单单": 3204,
      "色所": 3205,
      "侧侧侧源": 3206,
      "府高": 3207,
      "商商商": 3208,
      "水到": 3209,
      "由后后": 3210,
      "京争": 3211,
      "漓官": 3212,
      "老起": 3213,
      "窝窝窝": 3214,
      "吧脑": 3215,
      "越诲": 3216,
      "两时": 3217,
      "除啊啊": 3218,
      "铝這": 3219,
      "息维": 3220,
      "菩类": 3221,
      "先什": 3222,
      "迟剌": 3223,
      "团团利": 3224,
      "经衫": 3225,
      "整远": 3226,
      "剧每": 3227,
      "局眼": 3228,
      "白白拨": 3229,
      "带带带": 3230,
      "视大大": 3231,
      "汪取": 3232,
      "置易": 3233,
      "禺禺禺": 3234,
      "报线": 3235,
      "净因": 3236,
      "弩们": 3237,
      "动仁": 3238,
      "身观": 3239,
      "汉汉汉汉汉": 3240,
      "越卡": 3241,
      "拉心": 3242,
      "和和和": 3243,
      "伙配": 3244,
      "专解": 3245,
      "况况": 3246,
      "环起": 3247,
      "汪研": 3248,
      "务务务": 3249,
      "队闪": 3250,
      "叫福": 3251,
      "名名名": 3252,
      "研向向": 3253,
      "下下下下下": 3254,
      "子门": 3255,
      "患效": 3256,
      "其游": 3257,
      "德术": 3258,
      "周识": 3259,
      "看份": 3260,
      "专撸": 3261,
      "导局": 3262,
      "哺反": 3263,
      "有有尔型": 3264,
      "右底": 3265,
      "更更更": 3266,
      "百百": 3267,
      "脱住": 3268,
      "克班": 3269,
      "吃喜": 3270,
      "话米": 3271,
      "嘤拨": 3272,
      "县宾": 3273,
      "确确级": 3274,
      "复气": 3275,
      "少得": 3276,
      "桃舜": 3277,
      "上决": 3278,
      "连帮": 3279,
      "还四": 3280,
      "低低": 3281,
      "盟部": 3282,
      "利找": 3283,
      "己晚": 3284,
      "桃提": 3285,
      "台台": 3286,
      "胺母": 3287,
      "回儿": 3288,
      "税谁": 3289,
      "求因": 3290,
      "本府": 3291,
      "球保": 3292,
      "序序": 3293,
      "整整": 3294,
      "直出": 3295,
      "下宝": 3296,
      "经太": 3297,
      "管提": 3298,
      "如如如如": 3299,
      "盆城": 3300,
      "早元": 3301,
      "称买": 3302,
      "那窝": 3303,
      "趁之": 3304,
      "爱爱爱": 3305,
      "趁与": 3306,
      "药找": 3307,
      "士全": 3308,
      "右阱": 3309,
      "度水": 3310,
      "列健": 3311,
      "极沌": 3312,
      "叫脑": 3313,
      "如裔": 3314,
      "议议议议议": 3315,
      "统岁": 3316,
      "队正": 3317,
      "凡逸": 3318,
      "所所所": 3319,
      "楚楚害": 3320,
      "合合合合合": 3321,
      "必四": 3322,
      "除叫叫": 3323,
      "边心": 3324,
      "论接": 3325,
      "漓绝": 3326,
      "捧改": 3327,
      "天级": 3328,
      "用扇": 3329,
      "下箱箱": 3330,
      "内浏": 3331,
      "议议看": 3332,
      "阱告": 3333,
      "粉父": 3334,
      "章笙": 3335,
      "螺买": 3336,
      "没单": 3337,
      "白说": 3338,
      "专想": 3339,
      "英亲": 3340,
      "补补补补": 3341,
      "由由由由": 3342,
      "半率": 3343,
      "全全全全": 3344,
      "原提": 3345,
      "件读": 3346,
      "注钱": 3347,
      "康爸": 3348,
      "处是": 3349,
      "绝绝绝绝绝绝绝绝绝绝绝绝绝绝绝绝": 3350,
      "直餐": 3351,
      "你版": 3352,
      "中款": 3353,
      "头头头": 3354,
      "海博": 3355,
      "信信信": 3356,
      "同部": 3357,
      "女北": 3358,
      "肛骁": 3359,
      "但买": 3360,
      "技施": 3361,
      "祀得": 3362,
      "村村并": 3363,
      "造造造": 3364,
      "侧论关": 3365,
      "联联联": 3366,
      "路药": 3367,
      "队古": 3368,
      "够够够够够": 3369,
      "儿补": 3370,
      "啊啊啊啊啊啊啊啊啊": 3371,
      "本本本本本本": 3372,
      "琢随": 3373,
      "汉质": 3374,
      "侧计": 3375,
      "藏藏藏藏藏": 3376,
      "义螺": 3377,
      "汉啊啊": 3378,
      "华单": 3379,
      "少太": 3380,
      "及送": 3381,
      "锈确": 3382,
      "来戏": 3383,
      "县爸": 3384,
      "作桃": 3385,
      "有有尔尔": 3386,
      "于龙": 3387,
      "考考考考考": 3388,
      "黄四": 3389,
      "电嘤": 3390,
      "元元元": 3391,
      "事啊": 3392,
      "深习": 3393,
      "间脱": 3394,
      "镇官": 3395,
      "件保": 3396,
      "牌类": 3397,
      "污起": 3398,
      "板舒": 3399,
      "尿古": 3400,
      "戍宾": 3401,
      "报健": 3402,
      "福脑": 3403,
      "诲住": 3404,
      "代代": 3405,
      "芋控": 3406,
      "店店": 3407,
      "像背": 3408,
      "研取": 3409,
      "吗吗吗": 3410,
      "可硝": 3411,
      "东学": 3412,
      "报哺": 3413,
      "周刚": 3414,
      "后显": 3415,
      "文却": 3416,
      "行争": 3417,
      "补箱": 3418,
      "已剧": 3419,
      "排晚": 3420,
      "宝高": 3421,
      "就就": 3422,
      "巴器": 3423,
      "势务": 3424,
      "打嘤": 3425,
      "赛创": 3426,
      "商厄": 3427,
      "名两": 3428,
      "苏点": 3429,
      "适字": 3430,
      "绝绝绝绝绝绝绝": 3431,
      "利分": 3432,
      "维因": 3433,
      "份份份份": 3434,
      "全眼": 3435,
      "了了": 3436,
      "群盆": 3437,
      "数六": 3438,
      "胺取": 3439,
      "象难": 3440,
      "运款": 3441,
      "李李李": 3442,
      "德与": 3443,
      "迟效效": 3444,
      "继哪": 3445,
      "每例": 3446,
      "双力": 3447,
      "经指": 3448,
      "思思": 3449,
      "且之": 3450,
      "责给": 3451,
      "总总": 3452,
      "实实实": 3453,
      "电克": 3454,
      "胧住": 3455,
      "星星星星": 3456,
      "祀舒": 3457,
      "患江": 3458,
      "硝硝硝硝": 3459,
      "疑疑疑疑": 3460,
      "凡控": 3461,
      "镇士": 3462,
      "流流份": 3463,
      "可爱": 3464,
      "流流流流流": 3465,
      "角对": 3466,
      "普术": 3467,
      "形式": 3468,
      "大盘": 3469,
      "诲击": 3470,
      "德小": 3471,
      "层层层层层层层": 3472,
      "统统统": 3473,
      "游字": 3474,
      "育沌": 3475,
      "号健": 3476,
      "研共": 3477,
      "打或": 3478,
      "忆出": 3479,
      "配配配配": 3480,
      "别别别": 3481,
      "点还": 3482,
      "器旨": 3483,
      "章锈": 3484,
      "被流": 3485,
      "服右": 3486,
      "装更": 3487,
      "楼楼楼楼楼楼楼楼楼楼楼楼楼楼": 3488,
      "条水": 3489,
      "飒飒飒": 3490,
      "所置": 3491,
      "源累": 3492,
      "步步步步步步步步": 3493,
      "朋朋": 3494,
      "断果": 3495,
      "易易易易": 3496,
      "玩卉": 3497,
      "什向": 3498,
      "车必": 3499,
      "子羊": 3500,
      "镰镰言": 3501,
      "尿尿尿": 3502,
      "宦脂": 3503,
      "班门": 3504,
      "书啊": 3505,
      "高高合": 3506,
      "团知": 3507,
      "宝府": 3508,
      "高高啊啊": 3509,
      "注传传": 3510,
      "场望": 3511,
      "桃连": 3512,
      "称早": 3513,
      "介介介介介介": 3514,
      "复产": 3515,
      "锈锈锈锈锈": 3516,
      "帮连": 3517,
      "层汉": 3518,
      "普涡": 3519,
      "处看": 3520,
      "气取": 3521,
      "菩右": 3522,
      "喜脱": 3523,
      "实里": 3524,
      "净超": 3525,
      "些速速速": 3526,
      "巴巴巴": 3527,
      "强用": 3528,
      "宦哺": 3529,
      "锈锈死": 3530,
      "和再": 3531,
      "但控": 3532,
      "阳阳阳": 3533,
      "路始": 3534,
      "被作": 3535,
      "维啊": 3536,
      "听听": 3537,
      "桃制": 3538,
      "际增": 3539,
      "坝处": 3540,
      "女晚": 3541,
      "介够": 3542,
      "被显": 3543,
      "婚观": 3544,
      "除橙": 3545,
      "给离": 3546,
      "班脂": 3547,
      "量视": 3548,
      "先古": 3549,
      "有有记": 3550,
      "害外": 3551,
      "污决": 3552,
      "责感": 3553,
      "牡在": 3554,
      "蚌再": 3555,
      "网弩": 3556,
      "戏巴": 3557,
      "宾宾宾": 3558,
      "势配": 3559,
      "理理理": 3560,
      "在在在": 3561,
      "票硝": 3562,
      "党流": 3563,
      "议据": 3564,
      "康巴": 3565,
      "密虽": 3566,
      "熹找": 3567,
      "击击击住": 3568,
      "论容": 3569,
      "荼荼": 3570,
      "房箱": 3571,
      "尔想": 3572,
      "高高高高高高高高高高高高高高高高高高高高高高高高高高高高高高高高高高高高高高高高高高高高高高高高": 3573,
      "父父父": 3574,
      "扇流": 3575,
      "则民": 3576,
      "磋磋磋磋": 3577,
      "凡力": 3578,
      "险包": 3579,
      "伙好": 3580,
      "章天": 3581,
      "戍再": 3582,
      "流流两": 3583,
      "史识识": 3584,
      "祀楚": 3585,
      "成成成": 3586,
      "大视": 3587,
      "研问": 3588,
      "桃哺": 3589,
      "她己": 3590,
      "限是": 3591,
      "被浦": 3592,
      "锈质": 3593,
      "即士": 3594,
      "验取": 3595,
      "双使": 3596,
      "住击": 3597,
      "漓噶": 3598,
      "型记": 3599,
      "运尔尔": 3600,
      "逸照": 3601,
      "们们们": 3602,
      "瑚古": 3603,
      "舒厄": 3604,
      "上别": 3605,
      "裔吗": 3606,
      "牌资": 3607,
      "孩名": 3608,
      "脱脱脱脱": 3609,
      "傻极": 3610,
      "州莎": 3611,
      "协脱": 3612,
      "牺税": 3613,
      "玩样": 3614,
      "京面": 3615,
      "版致": 3616,
      "复巴": 3617,
      "建早": 3618,
      "速速速速": 3619,
      "报该": 3620,
      "态戏": 3621,
      "被字": 3622,
      "扇两两": 3623,
      "域域域": 3624,
      "命脑": 3625,
      "牺做": 3626,
      "决决决": 3627,
      "窝坝": 3628,
      "认和": 3629,
      "楼绝": 3630,
      "团熹熹": 3631,
      "语得": 3632,
      "买度": 3633,
      "县害害": 3634,
      "目继": 3635,
      "密概": 3636,
      "假假假": 3637,
      "标高": 3638,
      "官噶": 3639,
      "你什": 3640,
      "海致": 3641,
      "此此此": 3642,
      "净外": 3643,
      "康趁": 3644,
      "及哪": 3645,
      "结华": 3646,
      "票票票": 3647,
      "婚均": 3648,
      "源关": 3649,
      "险队": 3650,
      "但浏": 3651,
      "先向": 3652,
      "学宾": 3653,
      "熹种": 3654,
      "则亲": 3655,
      "班由": 3656,
      "难补": 3657,
      "人整": 3658,
      "类门": 3659,
      "脑脑脑脑脑": 3660,
      "窝那": 3661,
      "刚识": 3662,
      "学晚": 3663,
      "科盟": 3664,
      "钱钱钱": 3665,
      "比闪": 3666,
      "州米": 3667,
      "橙橙橙": 3668,
      "高高高啊": 3669,
      "作造": 3670,
      "学商": 3671,
      "职职职": 3672,
      "开没": 3673,
      "新点": 3674,
      "禺有": 3675,
      "所效": 3676,
      "府汉": 3677,
      "言好": 3678,
      "但力": 3679,
      "序计": 3680,
      "北北肛": 3681,
      "养爸": 3682,
      "讲粉": 3683,
      "两彰": 3684,
      "到因": 3685,
      "确八": 3686,
      "直忆": 3687,
      "地门": 3688,
      "管门": 3689,
      "应城": 3690,
      "裔裔且": 3691,
      "得试": 3692,
      "最处": 3693,
      "這有": 3694,
      "吊税": 3695,
      "元十": 3696,
      "反羊羊": 3697,
      "增增增": 3698,
      "福福福福福福福福": 3699,
      "术骨": 3700,
      "伙镰": 3701,
      "白置": 3702,
      "份份造": 3703,
      "显制": 3704,
      "双半": 3705,
      "尔号": 3706,
      "被党": 3707,
      "吊有": 3708,
      "都都": 3709,
      "理理很": 3710,
      "叫阿": 3711,
      "新出": 3712,
      "校校校": 3713,
      "汪于于": 3714,
      "议议光": 3715,
      "骁和": 3716,
      "仅服": 3717,
      "脂由": 3718,
      "磋心": 3719,
      "普弩": 3720,
      "汪語": 3721,
      "吗回": 3722,
      "汪少": 3723,
      "动然": 3724,
      "职宾": 3725,
      "技笙": 3726,
      "导团团团": 3727,
      "型保": 3728,
      "接中": 3729,
      "层盆": 3730,
      "帮字": 3731,
      "作份": 3732,
      "易江": 3733,
      "技支": 3734,
      "财财财": 3735,
      "样维": 3736,
      "白深": 3737,
      "母傻": 3738,
      "转转转": 3739,
      "全务": 3740,
      "满形": 3741,
      "阱北": 3742,
      "褐部": 3743,
      "侧关": 3744,
      "鲸鲸鲸": 3745,
      "个行": 3746,
      "利音": 3747,
      "前纱": 3748,
      "除除啊": 3749,
      "酒高": 3750,
      "汪语": 3751,
      "戍小": 3752,
      "伙点": 3753,
      "产产产": 3754,
      "必还": 3755,
      "场岁": 3756,
      "容车": 3757,
      "普北": 3758,
      "尔读": 3759,
      "知知始": 3760,
      "长动": 3761,
      "锈橙": 3762,
      "菩话": 3763,
      "宝标": 3764,
      "年政": 3765,
      "几几几": 3766,
      "爵爵爵爵": 3767,
      "厢因": 3768,
      "性政": 3769,
      "名条": 3770,
      "命命命命命": 3771,
      "错角": 3772,
      "后后后后后": 3773,
      "县县害": 3774,
      "油油油": 3775,
      "歌化": 3776,
      "汉承": 3777,
      "作吟": 3778,
      "浏浏": 3779,
      "母少": 3780,
      "些诲": 3781,
      "学装": 3782,
      "单笙": 3783,
      "盆盆决": 3784,
      "行岁": 3785,
      "哺宦": 3786,
      "限浦": 3787,
      "始始式": 3788,
      "形形形": 3789,
      "目路路": 3790,
      "满也": 3791,
      "发突": 3792,
      "玩玩": 3793,
      "侧因": 3794,
      "戍板": 3795,
      "博胧": 3796,
      "祀值": 3797,
      "妇息": 3798,
      "衫衫": 3799,
      "优协": 3800,
      "数士": 3801,
      "得取": 3802,
      "汇改": 3803,
      "楼除": 3804,
      "楼楼楼楼楼楼楼楼楼楼楼楼楼楼楼": 3805,
      "连连连": 3806,
      "越胧": 3807,
      "超有": 3808,
      "放放": 3809,
      "数择": 3810,
      "变与": 3811,
      "型张": 3812,
      "买称": 3813,
      "队版": 3814,
      "病推": 3815,
      "牺牺牺": 3816,
      "晚值值": 3817,
      "序样": 3818,
      "子子子子": 3819,
      "技章": 3820,
      "角角角角": 3821,
      "给共": 3822,
      "补官": 3823,
      "做磋": 3824,
      "生指": 3825,
      "厄间": 3826,
      "言很": 3827,
      "报吟": 3828,
      "易置": 3829,
      "注非": 3830,
      "近箱": 3831,
      "谁十": 3832,
      "护身": 3833,
      "注身": 3834,
      "餐还": 3835,
      "四还": 3836,
      "包对": 3837,
      "骁文": 3838,
      "戍蚌": 3839,
      "发计": 3840,
      "戍际": 3841,
      "药熹": 3842,
      "报反": 3843,
      "款运": 3844,
      "速住": 3845,
      "求箱": 3846,
      "建复": 3847,
      "果地": 3848,
      "告阱": 3849,
      "按书": 3850,
      "戏来": 3851,
      "际傻": 3852,
      "课实": 3853,
      "各各": 3854,
      "领领": 3855,
      "县喜": 3856,
      "超粉": 3857,
      "团团团团团": 3858,
      "结结结结结结": 3859,
      "核核": 3860,
      "有有粉": 3861,
      "极剌": 3862,
      "肛增": 3863,
      "然气": 3864,
      "建验": 3865,
      "村村听": 3866,
      "行统": 3867,
      "业尿": 3868,
      "识周": 3869,
      "育个": 3870,
      "脑没": 3871,
      "扇用": 3872,
      "农士": 3873,
      "肛阱": 3874,
      "帮帮帮": 3875,
      "厢工": 3876,
      "官绝": 3877,
      "讲记": 3878,
      "望势": 3879,
      "半十": 3880,
      "服原": 3881,
      "习计": 3882,
      "禺记": 3883,
      "全层": 3884,
      "研先": 3885,
      "教语": 3886,
      "妇济": 3887,
      "四欢": 3888,
      "局导": 3889,
      "平区": 3890,
      "发目": 3891,
      "政政政": 3892,
      "动旨": 3893,
      "告北": 3894,
      "浦到": 3895,
      "票磋": 3896,
      "箱箱人": 3897,
      "锈支": 3898,
      "双智": 3899,
      "场营": 3900,
      "古需": 3901,
      "忆又": 3902,
      "税粉": 3903,
      "胺太": 3904,
      "弩再": 3905,
      "戍值值": 3906,
      "限度": 3907,
      "后电": 3908,
      "漓漓漓漓漓漓漓漓": 3909,
      "玩到": 3910,
      "速诲": 3911,
      "已身": 3912,
      "普蚌": 3913,
      "条却": 3914,
      "难维": 3915,
      "宝支": 3916,
      "制时": 3917,
      "舒己": 3918,
      "技没": 3919,
      "桃由": 3920,
      "些速速金": 3921,
      "超哪": 3922,
      "上上上": 3923,
      "正险": 3924,
      "单确": 3925,
      "那坝": 3926,
      "刚果": 3927,
      "管由": 3928,
      "锈疑": 3929,
      "害完": 3930,
      "区区区": 3931,
      "议看看": 3932,
      "议反": 3933,
      "少究": 3934,
      "光光光": 3935,
      "处处处": 3936,
      "争争争": 3937,
      "必出": 3938,
      "管菩": 3939,
      "赛开": 3940,
      "或地": 3941,
      "羊反": 3942,
      "必直": 3943,
      "谈谈": 3944,
      "论累": 3945,
      "第第": 3946,
      "优争": 3947,
      "数够": 3948,
      "于楚": 3949,
      "吗且": 3950,
      "细细细": 3951,
      "际晚": 3952,
      "帮哺": 3953,
      "底右": 3954,
      "业产": 3955,
      "窘虽": 3956,
      "舒统": 3957,
      "爽爽爽爽爽爽": 3958,
      "自自自自自": 3959,
      "级没": 3960,
      "爽支": 3961,
      "推推": 3962,
      "普德": 3963,
      "思瑚": 3964,
      "骁在": 3965,
      "照也": 3966,
      "天天天天天天天天": 3967,
      "福系": 3968,
      "死间": 3969,
      "班则": 3970,
      "序厢": 3971,
      "术弩": 3972,
      "衫女": 3973,
      "协回": 3974,
      "叫楼楼": 3975,
      "展展展": 3976,
      "白色": 3977,
      "我箱": 3978,
      "效包": 3979,
      "纱餐": 3980,
      "基人": 3981,
      "划复": 3982,
      "什先": 3983,
      "或打": 3984,
      "协间": 3985,
      "晚晚在": 3986,
      "数按": 3987,
      "友友友": 3988,
      "县错": 3989,
      "班克": 3990,
      "随随": 3991,
      "脂脂脂": 3992,
      "改凡": 3993,
      "些排": 3994,
      "防嘤": 3995,
      "现仁": 3996,
      "直燃": 3997,
      "发换": 3998,
      "如如织": 3999,
      "更环": 4000,
      "同问": 4001,
      "击击金": 4002,
      "因箱": 4003,
      "论每": 4004,
      "时两": 4005,
      "从显": 4006,
      "行己": 4007,
      "名却": 4008,
      "制吟": 4009,
      "周子": 4010,
      "盆汉": 4011,
      "称浦": 4012,
      "双接": 4013,
      "熹过": 4014,
      "质高": 4015,
      "她学": 4016,
      "持漳": 4017,
      "巴变": 4018,
      "江嘤": 4019,
      "熹头": 4020,
      "不样": 4021,
      "祀沌": 4022,
      "分像": 4023,
      "全官": 4024,
      "元核": 4025,
      "试营": 4026,
      "补啊": 4027,
      "利路": 4028,
      "利知": 4029,
      "太装": 4030,
      "注铝": 4031,
      "锈进": 4032,
      "琢谁": 4033,
      "果与": 4034,
      "尔听": 4035,
      "说白白": 4036,
      "歌歌": 4037,
      "本脑": 4038,
      "作看": 4039,
      "之爸": 4040,
      "税民": 4041,
      "买到": 4042,
      "府城": 4043,
      "底与与": 4044,
      "面老": 4045,
      "几德": 4046,
      "她板": 4047,
      "尔尔尔尔": 4048,
      "完你": 4049,
      "至用": 4050,
      "制两": 4051,
      "李磋磋": 4052,
      "现产": 4053,
      "除除除除除除除除除除": 4054,
      "巴复": 4055,
      "形胧": 4056,
      "单脑": 4057,
      "父脂": 4058,
      "早向": 4059,
      "南南南南": 4060,
      "元度": 4061,
      "厄厄厄厄": 4062,
      "和文": 4063,
      "气感": 4064,
      "少取": 4065,
      "立核": 4066,
      "孩孩孩": 4067,
      "义表": 4068,
      "双厢": 4069,
      "社房": 4070,
      "还点": 4071,
      "自绝": 4072,
      "开辈": 4073,
      "啊片": 4074,
      "那己": 4075,
      "章死": 4076,
      "角点": 4077,
      "改改": 4078,
      "盘断": 4079,
      "太取": 4080,
      "莎汇": 4081,
      "识转": 4082,
      "系系系系": 4083,
      "先先先": 4084,
      "锈死死": 4085,
      "窝在": 4086,
      "深所": 4087,
      "爱照": 4088,
      "字用": 4089,
      "裔裔裔且": 4090,
      "营营营": 4091,
      "吃状": 4092,
      "叫叫楼": 4093,
      "词幂": 4094,
      "际存": 4095,
      "曲曲": 4096,
      "刚门": 4097,
      "发使": 4098,
      "目半": 4099,
      "马像": 4100,
      "康打": 4101,
      "班备": 4102,
      "捧样": 4103,
      "年性": 4104,
      "疑书": 4105,
      "科责": 4106,
      "考汉": 4107,
      "被舜": 4108,
      "晚晚她": 4109,
      "论菏": 4110,
      "粉粉": 4111,
      "模模模": 4112,
      "学京": 4113,
      "路种": 4114,
      "非视": 4115,
      "保保": 4116,
      "新忆": 4117,
      "置嘤": 4118,
      "育营": 4119,
      "裔如": 4120,
      "钱身": 4121,
      "效易": 4122,
      "承啊啊": 4123,
      "参参参": 4124,
      "被份": 4125,
      "买但": 4126,
      "超這": 4127,
      "环环环": 4128,
      "控均": 4129,
      "厄喜": 4130,
      "双哪": 4131,
      "必理": 4132,
      "飒们": 4133,
      "斥引": 4134,
      "宝求": 4135,
      "兴欢": 4136,
      "则浦": 4137,
      "太个": 4138,
      "及药": 4139,
      "是装": 4140,
      "人析": 4141,
      "岁岁": 4142,
      "白根": 4143,
      "木木木": 4144,
      "错错错": 4145,
      "叫戊": 4146,
      "做随": 4147,
      "语完": 4148,
      "啊啊啊啊啊啊啊啊啊啊": 4149,
      "胧胧胧胧胧": 4150,
      "钱护": 4151,
      "件球": 4152,
      "习委": 4153,
      "宾值值": 4154,
      "铝随": 4155,
      "收引": 4156,
      "除层层": 4157,
      "买限": 4158,
      "任任": 4159,
      "应本": 4160,
      "开笙": 4161,
      "米汇": 4162,
      "菩备": 4163,
      "类右": 4164,
      "晋晋": 4165,
      "磋拉": 4166,
      "州划": 4167,
      "干地": 4168,
      "改智": 4169,
      "志房": 4170,
      "啊啊啊高": 4171,
      "质盆": 4172,
      "尿你你": 4173,
      "会料": 4174,
      "晚己己": 4175,
      "起因": 4176,
      "阱门": 4177,
      "叫漓": 4178,
      "卫外": 4179,
      "根地": 4180,
      "阿除": 4181,
      "害害害害": 4182,
      "助助": 4183,
      "层官": 4184,
      "宝盆": 4185,
      "目工": 4186,
      "健服": 4187,
      "建动": 4188,
      "锈仙": 4189,
      "镰点": 4190,
      "卉厢": 4191,
      "供供": 4192,
      "职爸": 4193,
      "收民": 4194,
      "照长": 4195,
      "强流": 4196,
      "产明": 4197,
      "切再": 4198,
      "做远远": 4199,
      "噶因": 4200,
      "箱计继": 4201,
      "单单单单单单": 4202,
      "合合合合合合合合": 4203,
      "施高": 4204,
      "或旨": 4205,
      "路知始": 4206,
      "更造": 4207,
      "农农农农": 4208,
      "切极": 4209,
      "待待待待": 4210,
      "字舜": 4211,
      "称清": 4212,
      "后适": 4213,
      "脑择": 4214,
      "有护": 4215,
      "硝村": 4216,
      "种门": 4217,
      "遭提": 4218,
      "死书": 4219,
      "到到": 4220,
      "藏本": 4221,
      "待初": 4222,
      "于于于于": 4223,
      "收斥": 4224,
      "撸然": 4225,
      "事下": 4226,
      "帮孩": 4227,
      "尿业": 4228,
      "注道": 4229,
      "正业业": 4230,
      "彰流": 4231,
      "望伙": 4232,
      "琢逸": 4233,
      "型想": 4234,
      "建气": 4235,
      "仁之": 4236,
      "必说": 4237,
      "士求": 4238,
      "样房": 4239,
      "识变": 4240,
      "牡鲸": 4241,
      "写也": 4242,
      "部科": 4243,
      "周类": 4244,
      "前出": 4245,
      "话组": 4246,
      "系乎": 4247,
      "可牺": 4248,
      "反反反": 4249,
      "妇房": 4250,
      "低清": 4251,
      "必曲": 4252,
      "卉软": 4253,
      "累趁": 4254,
      "开确": 4255,
      "双容": 4256,
      "語县": 4257,
      "爸爸爸": 4258,
      "格格": 4259,
      "磋远": 4260,
      "状迟": 4261,
      "完完完完": 4262,
      "望角": 4263,
      "天确": 4264,
      "死仙": 4265,
      "晚板": 4266,
      "如如公": 4267,
      "双组": 4268,
      "资牌": 4269,
      "华华华华华华": 4270,
      "居居居居居": 4271,
      "榆故": 4272,
      "健线": 4273,
      "近近近近": 4274,
      "大大邃": 4275,
      "发侧": 4276,
      "计整": 4277,
      "福够": 4278,
      "共元": 4279,
      "硝禺": 4280,
      "汉补补": 4281,
      "景景景": 4282,
      "欢欢": 4283,
      "区板": 4284,
      "配势": 4285,
      "由电": 4286,
      "史史史": 4287,
      "城求": 4288,
      "龙龙龙": 4289,
      "汪汪汪": 4290,
      "队队险": 4291,
      "量量量": 4292,
      "击击速": 4293,
      "桃游": 4294,
      "院院院院": 4295,
      "共板": 4296,
      "窝提": 4297,
      "李团": 4298,
      "先研": 4299,
      "凡演": 4300,
      "度度度": 4301,
      "全书": 4302,
      "议报": 4303,
      "类牌": 4304,
      "除爽": 4305,
      "难难难": 4306,
      "赛赛赛": 4307,
      "遭被": 4308,
      "好所": 4309,
      "六按": 4310,
      "北告": 4311,
      "益却": 4312,
      "芋演": 4313,
      "负负": 4314,
      "心心谁": 4315,
      "承承承承承": 4316,
      "海吗": 4317,
      "半过": 4318,
      "值协": 4319,
      "士士士士": 4320,
      "回里": 4321,
      "死支": 4322,
      "凡哪": 4323,
      "边边边": 4324,
      "起汉": 4325,
      "如胧": 4326,
      "实上": 4327,
      "白理": 4328,
      "网网网": 4329,
      "成身": 4330,
      "加动": 4331,
      "普戍": 4332,
      "比队": 4333,
      "据研": 4334,
      "亮母": 4335,
      "餐直": 4336,
      "习因": 4337,
      "净外外": 4338,
      "称但": 4339,
      "利熹熹熹": 4340,
      "父用": 4341,
      "小和": 4342,
      "艺艺艺": 4343,
      "侧发关": 4344,
      "活語": 4345,
      "序练": 4346,
      "率十": 4347,
      "补盆": 4348,
      "祀祀祀祀": 4349,
      "山嘤": 4350,
      "如击": 4351,
      "汪不": 4352,
      "药使": 4353,
      "民民民": 4354,
      "双划": 4355,
      "生黄": 4356,
      "羊脂": 4357,
      "乎乎乎乎乎乎乎乎": 4358,
      "士奖": 4359,
      "作制": 4360,
      "住脱": 4361,
      "什建": 4362,
      "同研": 4363,
      "分红": 4364,
      "切沌": 4365,
      "那存": 4366,
      "列然": 4367,
      "被百": 4368,
      "知形": 4369,
      "式且": 4370,
      "英长": 4371,
      "近啊": 4372,
      "有有尔记": 4373,
      "早捧": 4374,
      "局解": 4375,
      "化胧": 4376,
      "辈没": 4377,
      "织迟": 4378,
      "级笙": 4379,
      "让让让": 4380,
      "患对": 4381,
      "厢继": 4382,
      "兴幂": 4383,
      "四所": 4384,
      "习工": 4385,
      "旨刚": 4386,
      "满致": 4387,
      "率特": 4388,
      "仅母": 4389,
      "还所": 4390,
      "省马": 4391,
      "改容": 4392,
      "统却": 4393,
      "宦管": 4394,
      "等水": 4395,
      "道随": 4396,
      "府府府府府": 4397,
      "每速速": 4398,
      "处期": 4399,
      "牌们": 4400,
      "确阿": 4401,
      "效参": 4402,
      "全奖": 4403,
      "员盟": 4404,
      "写音": 4405,
      "空护": 4406,
      "决盆": 4407,
      "往往往": 4408,
      "污协": 4409,
      "亲室": 4410,
      "得向": 4411,
      "或器器": 4412,
      "源力": 4413,
      "毕脑": 4414,
      "维月": 4415,
      "白易": 4416,
      "她晚晚": 4417,
      "达位": 4418,
      "汪胺": 4419,
      "优厄": 4420,
      "开技": 4421,
      "教迟": 4422,
      "书层层": 4423,
      "论力": 4424,
      "版里": 4425,
      "质技": 4426,
      "信信信信": 4427,
      "村件": 4428,
      "死锈锈": 4429,
      "作感": 4430,
      "学戍": 4431,
      "太太太": 4432,
      "长分": 4433,
      "表独": 4434,
      "普傻": 4435,
      "馋馋馋馋": 4436,
      "病对": 4437,
      "打打业": 4438,
      "致圈": 4439,
      "知路": 4440,
      "款尔": 4441,
      "技技技技技技": 4442,
      "笙笙笙笙笙笙笙": 4443,
      "体体": 4444,
      "华结": 4445,
      "点点欢": 4446,
      "说深": 4447,
      "明明明": 4448,
      "课老": 4449,
      "看坝": 4450,
      "华笙": 4451,
      "女德": 4452,
      "越例": 4453,
      "宾楚楚": 4454,
      "基换": 4455,
      "从流": 4456,
      "高考": 4457,
      "育育育育": 4458,
      "话称": 4459,
      "叫啊": 4460,
      "双换": 4461,
      "蚌职": 4462,
      "克概": 4463,
      "学值值": 4464,
      "吗不": 4465,
      "楼啊": 4466,
      "被游": 4467,
      "补求": 4468,
      "扇制": 4469,
      "后用用": 4470,
      "漓层": 4471,
      "北肛": 4472,
      "花花": 4473,
      "并用": 4474,
      "骨骨骨": 4475,
      "螺组": 4476,
      "趁果": 4477,
      "离汇": 4478,
      "以以以": 4479,
      "价博": 4480,
      "性直": 4481,
      "村村村村": 4482,
      "根门": 4483,
      "十序": 4484,
      "骁行": 4485,
      "找边": 4486,
      "有有有型": 4487,
      "色拨": 4488,
      "被吟": 4489,
      "乎脑": 4490,
      "噶目": 4491,
      "羊列": 4492,
      "汪之": 4493,
      "项密": 4494,
      "两两坝": 4495,
      "窝造": 4496,
      "撸报": 4497,
      "药团": 4498,
      "螺东": 4499,
      "标城": 4500,
      "团团熹": 4501,
      "推样": 4502,
      "寅寅": 4503,
      "什取": 4504,
      "片片片片片片片片": 4505,
      "宦旨": 4506,
      "本下": 4507,
      "人使": 4508,
      "榆连": 4509,
      "人智": 4510,
      "推欢": 4511,
      "绝戊": 4512,
      "们易": 4513,
      "应数": 4514,
      "脂子": 4515,
      "级级级级级级": 4516,
      "读帮": 4517,
      "讲禺": 4518,
      "剌与": 4519,
      "星务": 4520,
      "研同": 4521,
      "骁她": 4522,
      "语终": 4523,
      "亲门": 4524,
      "风风": 4525,
      "北右": 4526,
      "院正": 4527,
      "部红": 4528,
      "记项": 4529,
      "林演": 4530,
      "哺线": 4531,
      "示示示": 4532,
      "均身": 4533,
      "叫疑": 4534,
      "能啊啊": 4535,
      "八八八八八": 4536,
      "级确": 4537,
      "晚舒舒": 4538,
      "刚种": 4539,
      "动建": 4540,
      "非盘": 4541,
      "适显": 4542,
      "农疑": 4543,
      "于爸": 4544,
      "装己": 4545,
      "字两": 4546,
      "普飒": 4547,
      "读连": 4548,
      "根子": 4549,
      "和舒": 4550,
      "你尿": 4551,
      "早先": 4552,
      "患所": 4553,
      "自汉": 4554,
      "改使": 4555,
      "官择": 4556,
      "吟流": 4557,
      "少共": 4558,
      "这这": 4559,
      "够证": 4560,
      "完版": 4561,
      "很理理": 4562,
      "涡祀": 4563,
      "公裔": 4564,
      "部褐": 4565,
      "产爸": 4566,
      "势欢": 4567,
      "平职": 4568,
      "胺复": 4569,
      "数数数数数数数": 4570,
      "过十十": 4571,
      "螺话": 4572,
      "是元": 4573,
      "喜楚": 4574,
      "推玩": 4575,
      "坝坝坝": 4576,
      "起求": 4577,
      "资嘤": 4578,
      "确技": 4579,
      "经东": 4580,
      "离双": 4581,
      "骁增": 4582,
      "六维": 4583,
      "推序": 4584,
      "她际": 4585,
      "新直": 4586,
      "承补": 4587,
      "业打": 4588,
      "层择": 4589,
      "木以": 4590,
      "装争": 4591,
      "科长": 4592,
      "理好": 4593,
      "餐欢": 4594,
      "硝运": 4595,
      "完闪": 4596,
      "除楼楼": 4597,
      "牌力": 4598,
      "两两流": 4599,
      "转清": 4600,
      "高高高高高高高高高高高高高高高高高高高高高高高高高高高高高高高高高高高高高高高高高高高高高高高高高高高高高高高高高高高高高高高高": 4601,
      "列哺": 4602,
      "汇习": 4603,
      "然健": 4604,
      "例诲": 4605,
      "哪照": 4606,
      "米太": 4607,
      "转识": 4608,
      "和鲸": 4609,
      "幂样": 4610,
      "发维": 4611,
      "爵爵爵": 4612,
      "餐政": 4613,
      "合下": 4614,
      "置政": 4615,
      "学板": 4616,
      "吟制": 4617,
      "务初": 4618,
      "书按": 4619,
      "配便": 4620,
      "计位": 4621,
      "爱护": 4622,
      "這這這": 4623,
      "发软": 4624,
      "历历历历": 4625,
      "苏香": 4626,
      "视量": 4627,
      "太捧": 4628,
      "复母": 4629,
      "难侧": 4630,
      "过分": 4631,
      "法法": 4632,
      "变养": 4633,
      "逸逸": 4634,
      "信啊啊": 4635,
      "状包": 4636,
      "字显": 4637,
      "涡再": 4638,
      "战战": 4639,
      "行条": 4640,
      "山所": 4641,
      "发工": 4642,
      "蚌与": 4643,
      "需古": 4644,
      "致致致": 4645,
      "喜错": 4646,
      "级天": 4647,
      "你你向": 4648,
      "戍切切": 4649,
      "好好好": 4650,
      "队队尿": 4651,
      "右肛": 4652,
      "断器": 4653,
      "达厢": 4654,
      "感处": 4655,
      "层城": 4656,
      "晚在": 4657,
      "分利团": 4658,
      "海满": 4659,
      "科干": 4660,
      "吟吟看": 4661,
      "推改": 4662,
      "英温": 4663,
      "群群群": 4664,
      "其备": 4665,
      "网阱": 4666,
      "济维": 4667,
      "点便": 4668,
      "吟显": 4669,
      "或江": 4670,
      "发发关": 4671,
      "燃燃燃": 4672,
      "及照": 4673,
      "汪问": 4674,
      "德弩": 4675,
      "开锈": 4676,
      "班宦": 4677,
      "士补": 4678,
      "然仅": 4679,
      "找张": 4680,
      "技本": 4681,
      "商究": 4682,
      "底术": 4683,
      "书书书书书": 4684,
      "羊羊光": 4685,
      "底告": 4686,
      "灵灵": 4687,
      "电后后": 4688,
      "叫叫绝": 4689,
      "汉层层": 4690,
      "累傻": 4691,
      "份流": 4692,
      "餐纱": 4693,
      "官奖": 4694,
      "彰两": 4695,
      "造里": 4696,
      "来器": 4697,
      "京更": 4698,
      "结单": 4699,
      "非大": 4700,
      "礼本": 4701,
      "存那": 4702,
      "士疑": 4703,
      "基目": 4704,
      "火噶": 4705,
      "武武武武": 4706,
      "写些": 4707,
      "视精": 4708,
      "没没脑": 4709,
      "脱创": 4710,
      "钱這": 4711,
      "拉谁": 4712,
      "我补": 4713,
      "称元": 4714,
      "红据": 4715,
      "沌营": 4716,
      "望病": 4717,
      "合啊啊": 4718,
      "史周周": 4719,
      "婚浏": 4720,
      "大大大大": 4721,
      "福福福福福福": 4722,
      "练每": 4723,
      "确确没": 4724,
      "由阱": 4725,
      "众背": 4726,
      "至所": 4727,
      "都党": 4728,
      "儿外": 4729,
      "能难": 4730,
      "前组": 4731,
      "除除除除除除除除除除除": 4732,
      "蚌吃": 4733,
      "始始始": 4734,
      "美美美": 4735,
      "感看": 4736,
      "爽叫": 4737,
      "观晋": 4738,
      "斥度": 4739,
      "盟盟盟": 4740,
      "生育": 4741,
      "列去": 4742,
      "十度": 4743,
      "求求求": 4744,
      "漓漓漓漓漓漓": 4745,
      "喜语": 4746,
      "字字字字": 4747,
      "协求": 4748,
      "心运": 4749,
      "从桃": 4750,
      "仁仅": 4751,
      "农书": 4752,
      "板褐": 4753,
      "濡认": 4754,
      "密边": 4755,
      "说嘤": 4756,
      "官补": 4757,
      "远盘": 4758,
      "验验验验": 4759,
      "年们": 4760,
      "浦厢": 4761,
      "特责": 4762,
      "五群": 4763,
      "感共": 4764,
      "住住住": 4765,
      "节节": 4766,
      "房目": 4767,
      "健亲": 4768,
      "局专": 4769,
      "配伙": 4770,
      "底德德": 4771,
      "拉头": 4772,
      "尿队": 4773,
      "区值": 4774,
      "活职": 4775,
      "支除": 4776,
      "事施": 4777,
      "超谁": 4778,
      "东米": 4779,
      "管告": 4780,
      "形进": 4781,
      "命叫": 4782,
      "险语": 4783,
      "气线": 4784,
      "浦但": 4785,
      "啊承": 4786,
      "宾涡": 4787,
      "义备": 4788,
      "世世": 4789,
      "斥馋": 4790,
      "速金金": 4791,
      "种温": 4792,
      "下啊啊": 4793,
      "回回回": 4794,
      "吃吃吃": 4795,
      "半撸": 4796,
      "考考考考考考": 4797,
      "动戏": 4798,
      "后游": 4799,
      "装行": 4800,
      "众健": 4801,
      "牡七": 4802,
      "捧查": 4803,
      "部十": 4804,
      "球金": 4805,
      "浦序": 4806,
      "叫叫高": 4807,
      "术再": 4808,
      "死创": 4809,
      "产龙": 4810,
      "仁趁": 4811,
      "致环": 4812,
      "舒祀": 4813,
      "层叫": 4814,
      "过则": 4815,
      "吗裔": 4816,
      "周旨": 4817,
      "介福": 4818,
      "剌织": 4819,
      "由打": 4820,
      "双凡": 4821,
      "由由门": 4822,
      "不苏": 4823,
      "有讲": 4824,
      "分路": 4825,
      "平县": 4826,
      "知突": 4827,
      "彰水": 4828,
      "锈锈没": 4829,
      "侧箱": 4830,
      "儿城": 4831,
      "汉府": 4832,
      "汉汉补": 4833,
      "康变": 4834,
      "读宦": 4835,
      "利团团团团": 4836,
      "乐乐乐": 4837,
      "利导": 4838,
      "控身": 4839,
      "少少少": 4840,
      "字游": 4841,
      "傻际": 4842,
      "州长": 4843,
      "六数": 4844,
      "个元": 4845,
      "汉宝": 4846,
      "超运": 4847,
      "提窝": 4848,
      "房计": 4849,
      "下下箱": 4850,
      "干找": 4851,
      "份看": 4852,
      "班桃": 4853,
      "资们": 4854,
      "花找": 4855,
      "彰彰彰彰": 4856,
      "啊除": 4857,
      "结吧": 4858,
      "果变": 4859,
      "八齐": 4860,
      "喜喜喜喜": 4861,
      "性纱": 4862,
      "务伙": 4863,
      "介介介介介介介": 4864,
      "介证": 4865,
      "款硝": 4866,
      "林林": 4867,
      "带带带带": 4868,
      "女际": 4869,
      "步高": 4870,
      "示核": 4871,
      "侧侧侧关": 4872,
      "资识": 4873,
      "山这": 4874,
      "级吧": 4875,
      "刚变": 4876,
      "系起": 4877,
      "铝均": 4878,
      "小增": 4879,
      "濡捞": 4880,
      "生飒": 4881,
      "点查": 4882,
      "可做": 4883,
      "楚害害": 4884,
      "造老": 4885,
      "卉房": 4886,
      "化如": 4887,
      "漳持": 4888,
      "深深深": 4889,
      "欢目": 4890,
      "語教": 4891,
      "楚得": 4892,
      "致里": 4893,
      "育统": 4894,
      "防识": 4895,
      "己在": 4896,
      "待我": 4897,
      "叫施": 4898,
      "底北北": 4899,
      "特率": 4900,
      "爱吊": 4901,
      "本单": 4902,
      "刚力": 4903,
      "难求": 4904,
      "戍学": 4905,
      "白曲": 4906,
      "来现": 4907,
      "华开": 4908,
      "戏复": 4909,
      "远邃": 4910,
      "吗式": 4911,
      "华华没": 4912,
      "楼爽": 4913,
      "乎汉": 4914,
      "写五": 4915,
      "源突": 4916,
      "点新": 4917,
      "子周": 4918,
      "闪比": 4919,
      "连榆": 4920,
      "那条": 4921,
      "脱公": 4922,
      "提遭": 4923,
      "化织": 4924,
      "平語": 4925,
      "园素": 4926,
      "强被": 4927,
      "完外": 4928,
      "帮效": 4929,
      "处坝": 4930,
      "类网": 4931,
      "底普": 4932,
      "旨仅": 4933,
      "正队": 4934,
      "巴趁": 4935,
      "书除除": 4936,
      "形般": 4937,
      "便忆": 4938,
      "侧侧源关": 4939,
      "备其": 4940,
      "乎数": 4941,
      "爸县": 4942,
      "习突": 4943,
      "介择": 4944,
      "水时": 4945,
      "易资": 4946,
      "背众": 4947,
      "防门": 4948,
      "复亮": 4949,
      "流流吟": 4950,
      "管宦": 4951,
      "江所": 4952,
      "间死": 4953,
      "曲还": 4954,
      "及使": 4955,
      "出直": 4956,
      "傻趁": 4957,
      "列光": 4958,
      "置说": 4959,
      "改因": 4960,
      "改厢": 4961,
      "易所": 4962,
      "伙兴": 4963,
      "局药": 4964,
      "阿阿阿阿阿阿阿阿": 4965,
      "州种": 4966,
      "质宝": 4967,
      "击诲": 4968,
      "十据": 4969,
      "婚身": 4970,
      "育生": 4971,
      "步承": 4972,
      "确确天": 4973,
      "明龙": 4974,
      "己己己己": 4975,
      "汉求": 4976,
      "谢房": 4977,
      "感元": 4978,
      "到满": 4979,
      "器打": 4980,
      "序但": 4981,
      "菏称": 4982,
      "和年": 4983,
      "密熹": 4984,
      "心熹": 4985,
      "彰吟": 4986,
      "内钱": 4987,
      "于外": 4988,
      "什胺": 4989,
      "分团": 4990,
      "裔裔裔裔裔": 4991,
      "注邃": 4992,
      "有吊": 4993,
      "车为": 4994,
      "介齐": 4995,
      "照照": 4996,
      "作榆": 4997,
      "四效": 4998,
      "啊补": 4999,
      "质我": 5000,
      "边村": 5001,
      "型项": 5002,
      "游记": 5003,
      "右种": 5004,
      "锈级": 5005,
      "七增": 5006,
      "致立": 5007,
      "争素": 5008,
      "与趁": 5009,
      "李率": 5010,
      "原窝": 5011,
      "肛北": 5012,
      "餐燃": 5013,
      "厄以": 5014,
      "星核": 5015,
      "电由由": 5016,
      "哺显": 5017,
      "路导": 5018,
      "盆求": 5019,
      "右类": 5020,
      "问苏": 5021,
      "开章": 5022,
      "应单": 5023,
      "层补": 5024,
      "相相": 5025,
      "用后后": 5026,
      "越歌": 5027,
      "坝那": 5028,
      "险尿": 5029,
      "干亲": 5030,
      "标宝": 5031,
      "得场": 5032,
      "域域域域": 5033,
      "餐配": 5034,
      "切切切切": 5035,
      "在行": 5036,
      "胺什": 5037,
      "涡沌": 5038,
      "天天天天天天天": 5039,
      "按数": 5040,
      "衫普": 5041,
      "科健": 5042,
      "向先": 5043,
      "右北北": 5044,
      "导眼": 5045,
      "迟正": 5046,
      "确命": 5047,
      "亮亮亮": 5048,
      "逸款": 5049,
      "研气": 5050,
      "周义": 5051,
      "宝宝宝宝宝": 5052,
      "置置所": 5053,
      "噶奖": 5054,
      "侧委": 5055,
      "蚌木": 5056,
      "叫绝绝": 5057,
      "角势": 5058,
      "传传传传": 5059,
      "指商": 5060,
      "由桃": 5061,
      "齐疑": 5062,
      "可道": 5063,
      "字扇": 5064,
      "样月": 5065,
      "牡增": 5066,
      "立立立": 5067,
      "转斥": 5068,
      "撸子": 5069,
      "注大": 5070,
      "螺太": 5071,
      "哺羊": 5072,
      "語楚楚": 5073,
      "橙除": 5074,
      "比势": 5075,
      "磋票": 5076,
      "样软": 5077,
      "象书": 5078,
      "职县": 5079,
      "除除楼": 5080,
      "每些速": 5081,
      "共褐": 5082,
      "优优优": 5083,
      "动古": 5084,
      "高支": 5085,
      "米东": 5086,
      "高高本": 5087,
      "在鲸": 5088,
      "部据": 5089,
      "每速": 5090,
      "完于": 5091,
      "汇使": 5092,
      "凡剧": 5093,
      "啊漓": 5094,
      "汇种": 5095,
      "究示": 5096,
      "版版版版": 5097,
      "喜害": 5098,
      "利突": 5099,
      "年年年": 5100,
      "浏款": 5101,
      "初燃": 5102,
      "板宾": 5103,
      "芋吊": 5104,
      "七网": 5105,
      "与德德": 5106,
      "计容": 5107,
      "传這": 5108,
      "公且": 5109,
      "清早早": 5110,
      "越算": 5111,
      "五调": 5112,
      "婚禺": 5113,
      "究究究究": 5114,
      "两份份": 5115,
      "经普": 5116,
      "织剌": 5117,
      "存花": 5118,
      "技府": 5119,
      "黄病": 5120,
      "毕毕毕毕": 5121,
      "婚已": 5122,
      "发厢": 5123,
      "复现": 5124,
      "作于": 5125,
      "天死": 5126,
      "每为": 5127,
      "认舒": 5128,
      "你队": 5129,
      "神瑚": 5130,
      "脑除": 5131,
      "双买": 5132,
      "服仅": 5133,
      "迟错": 5134,
      "度斥": 5135,
      "元捧": 5136,
      "巴地": 5137,
      "单单没": 5138,
      "胺养": 5139,
      "旨亲": 5140,
      "之产": 5141,
      "结笙": 5142,
      "质漓": 5143,
      "模等": 5144,
      "撸列": 5145,
      "海海胧": 5146,
      "迟织": 5147,
      "态教": 5148,
      "越金": 5149,
      "类刚": 5150,
      "州输": 5151,
      "文年": 5152,
      "得间": 5153,
      "彰势": 5154,
      "向据": 5155,
      "始般": 5156,
      "之于": 5157,
      "式断": 5158,
      "足母": 5159,
      "飒生": 5160,
      "板获": 5161,
      "涡宾": 5162,
      "度序": 5163,
      "撸宦": 5164,
      "医医医医": 5165,
      "随照": 5166,
      "控史": 5167,
      "傻普": 5168,
      "或子": 5169,
      "期处": 5170,
      "双整": 5171,
      "充补": 5172,
      "老城": 5173,
      "话遭": 5174,
      "领排": 5175,
      "华走": 5176,
      "板京": 5177,
      "侧源关": 5178,
      "污京": 5179,
      "制制制制": 5180,
      "有克": 5181,
      "必新": 5182,
      "单章": 5183,
      "高高高高高高高高高高高高高高高高高": 5184,
      "己己条": 5185,
      "故榆": 5186,
      "装优": 5187,
      "本本本本本本本": 5188,
      "远半": 5189,
      "有有有尔": 5190,
      "位世": 5191,
      "儿儿儿": 5192,
      "责率": 5193,
      "名鲸": 5194,
      "改论": 5195,
      "叫本": 5196,
      "礼走": 5197,
      "右门": 5198,
      "换莎": 5199,
      "肛女": 5200,
      "值厄": 5201,
      "六福": 5202,
      "气共": 5203,
      "半药": 5204,
      "何转": 5205,
      "路路分": 5206,
      "胺称": 5207,
      "石维": 5208,
      "是行": 5209,
      "马重": 5210,
      "菩浦": 5211,
      "有民": 5212,
      "尔张": 5213,
      "房厢": 5214,
      "净琢": 5215,
      "帮漳": 5216,
      "解眼": 5217,
      "从吟": 5218,
      "双目": 5219,
      "非均": 5220,
      "必深": 5221,
      "叫高高": 5222,
      "白效": 5223,
      "水但": 5224,
      "起眼": 5225,
      "谁心": 5226,
      "做远局": 5227,
      "桃线": 5228,
      "防类": 5229,
      "状状状": 5230,
      "脑承": 5231,
      "什验": 5232,
      "和统": 5233,
      "更面": 5234,
      "配镰": 5235,
      "试角": 5236,
      "正打打": 5237,
      "利干": 5238,
      "林税": 5239,
      "强强强": 5240,
      "窝处": 5241,
      "成护": 5242,
      "武施": 5243,
      "直黄": 5244,
      "凡工": 5245,
      "学协": 5246,
      "十势": 5247,
      "骁己": 5248,
      "越织": 5249,
      "锈技技": 5250,
      "药药药药": 5251,
      "撸最": 5252,
      "两扇": 5253,
      "运硝": 5254,
      "出忆": 5255,
      "度但": 5256,
      "高高高啊啊": 5257,
      "份坝": 5258,
      "备备": 5259,
      "进死": 5260,
      "虽禺": 5261,
      "或周": 5262,
      "义则": 5263,
      "达哪": 5264,
      "头照": 5265,
      "干团": 5266,
      "更京": 5267,
      "内收": 5268,
      "汉合": 5269,
      "吧走": 5270,
      "藏藏藏藏藏藏": 5271,
      "析路": 5272,
      "做哪": 5273,
      "求噶": 5274,
      "据据据": 5275,
      "胺产": 5276,
      "语研": 5277,
      "究争": 5278,
      "精维": 5279,
      "逸中": 5280,
      "理镰": 5281,
      "桃管原": 5282,
      "们生": 5283,
      "脱儿": 5284,
      "求人": 5285,
      "素府": 5286,
      "势势势势": 5287,
      "凡随": 5288,
      "服告": 5289,
      "少語": 5290,
      "芋注": 5291,
      "爸养": 5292,
      "起决": 5293,
      "脂列": 5294,
      "切喜喜": 5295,
      "里上": 5296,
      "化式": 5297,
      "半磋": 5298,
      "每车": 5299,
      "除福福": 5300,
      "德底": 5301,
      "卡术": 5302,
      "率议议": 5303,
      "近箱箱": 5304,
      "取太": 5305,
      "数齐": 5306,
      "岁点": 5307,
      "需动": 5308,
      "菏识": 5309,
      "七效": 5310,
      "章章章章章": 5311,
      "发智": 5312,
      "這护": 5313,
      "餐角": 5314,
      "由由后": 5315,
      "胺教": 5316,
      "感作": 5317,
      "濡傻": 5318,
      "错县": 5319,
      "课面": 5320,
      "共商": 5321,
      "被民": 5322,
      "厢厢": 5323,
      "皮邃": 5324,
      "被用": 5325,
      "十元": 5326,
      "版回": 5327,
      "星到": 5328,
      "按介": 5329,
      "容称": 5330,
      "我啊啊": 5331,
      "除除福": 5332,
      "职与": 5333,
      "脂班": 5334,
      "馋则": 5335,
      "高除": 5336,
      "开单": 5337,
      "熹熹写": 5338,
      "没级": 5339,
      "白必": 5340,
      "半责": 5341,
      "原管": 5342,
      "计琢": 5343,
      "非身": 5344,
      "健录": 5345,
      "因厢": 5346,
      "府本": 5347,
      "效效效效": 5348,
      "亲则": 5349,
      "确级级": 5350,
      "速速速金": 5351,
      "地或": 5352,
      "营黄": 5353,
      "正瑚": 5354,
      "盆层": 5355,
      "整英": 5356,
      "增鲸": 5357,
      "祀商": 5358,
      "考高高": 5359,
      "便镰": 5360,
      "汪共": 5361,
      "力母": 5362,
      "四至": 5363,
      "济卉": 5364,
      "供大": 5365,
      "话经": 5366,
      "女她": 5367,
      "普普普": 5368,
      "宝啊啊": 5369,
      "安安": 5370,
      "词先": 5371,
      "够够够够够够": 5372,
      "光看": 5373,
      "什于": 5374,
      "众报": 5375,
      "业器": 5376,
      "药票": 5377,
      "村党": 5378,
      "羊报": 5379,
      "捧但": 5380,
      "可可谁": 5381,
      "高高高高高高高高高高高高高高高高高高": 5382,
      "错喜": 5383,
      "速球": 5384,
      "农待": 5385,
      "择择择择择": 5386,
      "协协协协": 5387,
      "长旨": 5388,
      "房卉": 5389,
      "容工": 5390,
      "考考考考考考考考考考考考考考考考": 5391,
      "卡防": 5392,
      "高楼": 5393,
      "清建": 5394,
      "复变": 5395,
      "脑福": 5396,
      "尿器": 5397,
      "迟康": 5398,
      "质汉": 5399,
      "考啊": 5400,
      "应华": 5401,
      "六六六六": 5402,
      "除除除除除除除除除": 5403,
      "哺孩": 5404,
      "数维": 5405,
      "剧晋": 5406,
      "业且": 5407,
      "价满博": 5408,
      "欢继": 5409,
      "双练": 5410,
      "层除": 5411,
      "我噶": 5412,
      "州忆": 5413,
      "即卉": 5414,
      "划太": 5415,
      "酒没": 5416,
      "眼导": 5417,
      "过周": 5418,
      "爱可": 5419,
      "锈没没": 5420,
      "字适": 5421,
      "显显吟": 5422,
      "发噶": 5423,
      "却却却": 5424,
      "是处": 5425,
      "菩买": 5426,
      "骁骁骁": 5427,
      "高高高高啊": 5428,
      "妇品": 5429,
      "杀杀杀": 5430,
      "古之": 5431,
      "全调": 5432,
      "志维": 5433,
      "迟状": 5434,
      "念念": 5435,
      "步啊啊": 5436,
      "场料": 5437,
      "连室": 5438,
      "住击击": 5439,
      "份水": 5440,
      "府合": 5441,
      "玩六": 5442,
      "化视": 5443,
      "汇汇": 5444,
      "桃榆": 5445,
      "尿于": 5446,
      "胧胧式": 5447,
      "漓福": 5448,
      "锈确确": 5449,
      "牌车": 5450,
      "宝事": 5451,
      "故规": 5452,
      "新还": 5453,
      "感线": 5454,
      "据先": 5455,
      "州责": 5456,
      "看看处": 5457,
      "决噶": 5458,
      "采气": 5459,
      "兴查": 5460,
      "素技": 5461,
      "瑚比": 5462,
      "虽讲": 5463,
      "仙充": 5464,
      "粉党": 5465,
      "人满": 5466,
      "橙按": 5467,
      "置参": 5468,
      "种表": 5469,
      "脱能": 5470,
      "周史": 5471,
      "哺吟": 5472,
      "那面": 5473,
      "农择": 5474,
      "底果": 5475,
      "坝孩": 5476,
      "舒晚": 5477,
      "装京": 5478,
      "议红": 5479,
      "网七": 5480,
      "脱难": 5481,
      "戍舒舒": 5482,
      "脂显": 5483,
      "曲所": 5484,
      "女蚌": 5485,
      "承官": 5486,
      "织公": 5487,
      "确没没": 5488,
      "几蚌": 5489,
      "识资": 5490,
      "宾学": 5491,
      "义转": 5492,
      "祀厄厄": 5493,
      "承本": 5494,
      "或或或": 5495,
      "累理理": 5496,
      "迟公": 5497,
      "仙汉": 5498,
      "济息": 5499,
      "大大盘": 5500,
      "根嘤": 5501,
      "层箱": 5502,
      "校完": 5503,
      "那课": 5504,
      "又前": 5505,
      "在益": 5506,
      "施技": 5507,
      "伙还": 5508,
      "吧华": 5509,
      "思净": 5510,
      "报羊": 5511,
      "胧击": 5512,
      "进园": 5513,
      "她骁": 5514,
      "告榆": 5515,
      "政置置": 5516,
      "目路": 5517,
      "楚楚楚楚": 5518,
      "清低": 5519,
      "外公": 5520,
      "上补": 5521,
      "习使": 5522,
      "山山山山": 5523,
      "值戍": 5524,
      "楚县": 5525,
      "漓除": 5526,
      "存鲸": 5527,
      "由由宦": 5528,
      "再沌": 5529,
      "支支支支支": 5530,
      "叫叫除": 5531,
      "這身": 5532,
      "分知知知": 5533,
      "剌康": 5534,
      "电类": 5535,
      "爽书": 5536,
      "型觉": 5537,
      "打江": 5538,
      "汉汉啊": 5539,
      "红红红": 5540,
      "米元": 5541,
      "速排": 5542,
      "版闪": 5543,
      "光建": 5544,
      "热其": 5545,
      "父显": 5546,
      "护吊": 5547,
      "嘤嘤拨": 5548,
      "式住": 5549,
      "月关": 5550,
      "部部盟": 5551,
      "为北": 5552,
      "棍花": 5553,
      "加来": 5554,
      "啊啊啊啊啊啊啊啊啊啊啊": 5555,
      "尔风": 5556,
      "心及": 5557,
      "限组": 5558,
      "欢换": 5559,
      "克有": 5560,
      "险完": 5561,
      "仁教": 5562,
      "乎够": 5563,
      "乎自": 5564,
      "士择": 5565,
      "褐褐褐褐": 5566,
      "份时": 5567,
      "游帮": 5568,
      "绝除": 5569,
      "连提": 5570,
      "班类": 5571,
      "底刚": 5572,
      "科周": 5573,
      "涡骨": 5574,
      "乐终": 5575,
      "谢谢": 5576,
      "记被": 5577,
      "直苏": 5578,
      "有型风": 5579,
      "细包": 5580,
      "新餐": 5581,
      "你完": 5582,
      "点苏": 5583,
      "罗星": 5584,
      "有型读": 5585,
      "动巴": 5586,
      "疑支": 5587,
      "游阱": 5588,
      "楚汪": 5589,
      "儿求": 5590,
      "致核": 5591,
      "制显": 5592,
      "别餐": 5593,
      "亲刚": 5594,
      "早称": 5595,
      "置效": 5596,
      "之什": 5597,
      "果仅": 5598,
      "始式公": 5599,
      "错害": 5600,
      "城盆": 5601,
      "度限": 5602,
      "始公": 5603,
      "信我": 5604,
      "点病": 5605,
      "运尔型": 5606,
      "健门": 5607,
      "府房": 5608,
      "涡企": 5609,
      "伙查": 5610,
      "人位": 5611,
      "传传身": 5612,
      "两名": 5613,
      "复刚": 5614,
      "用并": 5615,
      "学学学": 5616,
      "该故": 5617,
      "宦告": 5618,
      "论莎": 5619,
      "健列": 5620,
      "定厄": 5621,
      "强实": 5622,
      "议议议议议议": 5623,
      "款禺": 5624,
      "瑚至": 5625,
      "古重": 5626,
      "干周": 5627,
      "傻与": 5628,
      "辈华": 5629,
      "习换": 5630,
      "产养": 5631,
      "月控": 5632,
      "极料": 5633,
      "险正": 5634,
      "指育": 5635,
      "林牺": 5636,
      "提作": 5637,
      "早买": 5638,
      "期十": 5639,
      "层楼": 5640,
      "参所": 5641,
      "农层层": 5642,
      "住如": 5643,
      "反议议": 5644,
      "女戍戍": 5645,
      "民浦": 5646,
      "离改": 5647,
      "检击": 5648,
      "高高高高高高高高高高高高高高高高高高高": 5649,
      "走牺": 5650,
      "调务": 5651,
      "远远局局": 5652,
      "款款": 5653,
      "级结": 5654,
      "职趁": 5655,
      "难待": 5656,
      "力东": 5657,
      "是共": 5658,
      "肛益": 5659,
      "来识": 5660,
      "药送": 5661,
      "近我": 5662,
      "率科": 5663,
      "变变变": 5664,
      "患患患": 5665,
      "息下": 5666,
      "古戏": 5667,
      "斥十": 5668,
      "会它": 5669,
      "厢琢": 5670,
      "及路": 5671,
      "叫层层层": 5672,
      "什明": 5673,
      "内观": 5674,
      "合合合合合合": 5675,
      "没橙": 5676,
      "类菩": 5677,
      "义右": 5678,
      "污优": 5679,
      "力表": 5680,
      "言镰言": 5681,
      "外外且": 5682,
      "江或": 5683,
      "熹团": 5684,
      "片啊": 5685,
      "凡观": 5686,
      "宝下下": 5687,
      "粉水": 5688,
      "到目": 5689,
      "尔尔记": 5690,
      "识识识识": 5691,
      "适桃": 5692,
      "统鲸": 5693,
      "這有记": 5694,
      "再术": 5695,
      "王故": 5696,
      "切以": 5697,
      "官证": 5698,
      "厢目": 5699,
      "城城城城": 5700,
      "到软": 5701,
      "脂后": 5702,
      "她捞": 5703,
      "则班": 5704,
      "官全": 5705,
      "盆盆补": 5706,
      "被扇": 5707,
      "拉磋": 5708,
      "气研": 5709,
      "居居居居居居居居居居居居居居居居": 5710,
      "确天天": 5711,
      "不问": 5712,
      "确确确确确确确确确": 5713,
      "据元": 5714,
      "妇社": 5715,
      "语错": 5716,
      "强用用": 5717,
      "东买": 5718,
      "改源": 5719,
      "尿汪": 5720,
      "非非视": 5721,
      "角还": 5722,
      "版向": 5723,
      "企得": 5724,
      "离序": 5725,
      "侧侧论关": 5726,
      "教态": 5727,
      "谢起": 5728,
      "按六": 5729,
      "牡牡牡": 5730,
      "心做": 5731,
      "楼自": 5732,
      "在窝": 5733,
      "空空空": 5734,
      "果门": 5735,
      "确章": 5736,
      "息房": 5737,
      "间镇": 5738,
      "种仅": 5739,
      "传观": 5740,
      "政曲": 5741,
      "石起": 5742,
      "模友": 5743,
      "馋责": 5744,
      "德普": 5745,
      "我我我我": 5746,
      "看星": 5747,
      "爽高": 5748,
      "议星": 5749,
      "孩坝": 5750,
      "式活": 5751,
      "羊子子": 5752,
      "争优": 5753,
      "动复": 5754,
      "线故": 5755,
      "米装": 5756,
      "加光": 5757,
      "条己": 5758,
      "运号": 5759,
      "胧胧如": 5760,
      "分团团": 5761,
      "数介": 5762,
      "角配": 5763,
      "戍认": 5764,
      "种汇": 5765,
      "质府": 5766,
      "除除除除除除除除除除除除": 5767,
      "政必": 5768,
      "漓全": 5769,
      "北牌": 5770,
      "双铝": 5771,
      "部最": 5772,
      "越击击": 5773,
      "天章": 5774,
      "维维维维": 5775,
      "出前": 5776,
      "利形": 5777,
      "义菩": 5778,
      "东组": 5779,
      "态剌": 5780,
      "绝自": 5781,
      "觉必": 5782,
      "室告": 5783,
      "板共": 5784,
      "叫叫层层": 5785,
      "业险": 5786,
      "扇扇扇扇扇": 5787,
      "天八": 5788,
      "路路路": 5789,
      "分过": 5790,
      "引引引": 5791,
      "民父": 5792,
      "粉彰": 5793,
      "现现现现": 5794,
      "宝合": 5795,
      "汉考": 5796,
      "争示": 5797,
      "从列": 5798,
      "外裔裔": 5799,
      "创求": 5800,
      "肛牡": 5801,
      "己己行": 5802,
      "宝待": 5803,
      "党都": 5804,
      "趁語": 5805,
      "博博博": 5806,
      "锈园": 5807,
      "够介": 5808,
      "双琢": 5809,
      "调调调": 5810,
      "供量": 5811,
      "软软": 5812,
      "断打": 5813,
      "按啊": 5814,
      "两流流": 5815,
      "那处": 5816,
      "四黄": 5817,
      "于于向": 5818,
      "易效": 5819,
      "周资": 5820,
      "健子": 5821,
      "深说": 5822,
      "辈群": 5823,
      "单单本": 5824,
      "你你先": 5825,
      "运记": 5826,
      "宝宝宝宝宝宝": 5827,
      "长州": 5828,
      "心照": 5829,
      "统育": 5830,
      "性节": 5831,
      "势幂": 5832,
      "忆州": 5833,
      "眼局": 5834,
      "餐餐餐餐": 5835,
      "除毕": 5836,
      "橙数": 5837,
      "拨房": 5838,
      "患黄": 5839,
      "内演": 5840,
      "汉城": 5841,
      "想看": 5842,
      "趁康": 5843,
      "盘知": 5844,
      "角望": 5845,
      "明于": 5846,
      "直新新": 5847,
      "补城": 5848,
      "思超": 5849,
      "做做做": 5850,
      "样铝": 5851,
      "营交": 5852,
      "专专专": 5853,
      "虽硝": 5854,
      "福域": 5855,
      "早致": 5856,
      "产变": 5857,
      "累相": 5858,
      "汉自": 5859,
      "侧噶": 5860,
      "亲类": 5861,
      "胧化": 5862,
      "度低": 5863,
      "词马": 5864,
      "弩增": 5865,
      "联联联联": 5866,
      "得得得": 5867,
      "什龙": 5868,
      "件都": 5869,
      "晚晚舒": 5870,
      "公康": 5871,
      "阿高": 5872,
      "种右": 5873,
      "晚晚晚己": 5874,
      "没没没没没没": 5875,
      "少宾": 5876,
      "侧侧论": 5877,
      "学舒": 5878,
      "凡组": 5879,
      "标下": 5880,
      "门北": 5881,
      "现复": 5882,
      "同捧": 5883,
      "道道道": 5884,
      "高高高高高高高高高高高高高高高高高高高高": 5885,
      "濡际": 5886,
      "好伙": 5887,
      "事信": 5888,
      "象社": 5889,
      "苏查": 5890,
      "教戏": 5891,
      "弩文": 5892,
      "向向致": 5893,
      "此此此此": 5894,
      "流党": 5895,
      "运哪": 5896,
      "也没": 5897,
      "脑毕": 5898,
      "亲仅": 5899,
      "位遭": 5900,
      "改委": 5901,
      "收史": 5902,
      "芋可": 5903,
      "质啊啊": 5904,
      "导团团团团": 5905,
      "界用": 5906,
      "她是": 5907,
      "更更老": 5908,
      "力晋": 5909,
      "后后显": 5910,
      "点伙": 5911,
      "眼音": 5912,
      "列作": 5913,
      "共取": 5914,
      "戍傻": 5915,
      "后后帮": 5916,
      "省需": 5917,
      "军军军": 5918,
      "早序": 5919,
      "吟两两": 5920,
      "橙毕": 5921,
      "读读": 5922,
      "到整": 5923,
      "辈技": 5924,
      "找专": 5925,
      "些保": 5926,
      "桃被": 5927,
      "比星": 5928,
      "绝官": 5929,
      "正正业": 5930,
      "全噶噶": 5931,
      "线然": 5932,
      "养养养": 5933,
      "份实实": 5934,
      "达接": 5935,
      "务基": 5936,
      "玩厢": 5937,
      "上实": 5938,
      "对病": 5939,
      "累言": 5940,
      "少装": 5941,
      "辈开": 5942,
      "复权": 5943,
      "求园": 5944,
      "支爽": 5945,
      "密票": 5946,
      "场得": 5947,
      "北增": 5948,
      "吃剌": 5949,
      "健哺": 5950,
      "划气": 5951,
      "复仁": 5952,
      "长录": 5953,
      "例金": 5954,
      "浏剧": 5955,
      "在牡": 5956,
      "值板": 5957,
      "爽爽爽爽爽爽爽": 5958,
      "行纱": 5959,
      "政效": 5960,
      "何清": 5961,
      "究元": 5962,
      "己鲸": 5963,
      "阱原": 5964,
      "十引": 5965,
      "地防": 5966,
      "阱菩": 5967,
      "沌患": 5968,
      "高啊啊啊": 5969,
      "练五": 5970,
      "宦服": 5971,
      "场厄": 5972,
      "定定定": 5973,
      "率光": 5974,
      "与康": 5975,
      "据取": 5976,
      "数层": 5977,
      "但卉": 5978,
      "侧侧委": 5979,
      "孩亚": 5980,
      "亲服": 5981,
      "按士": 5982,
      "极织": 5983,
      "己京": 5984,
      "请请请": 5985,
      "盆质": 5986,
      "界反": 5987,
      "与与职": 5988,
      "脑命": 5989,
      "蚌德德": 5990,
      "头熹": 5991,
      "找票票": 5992,
      "写写": 5993,
      "母胺": 5994,
      "非邃": 5995,
      "白嘤嘤": 5996,
      "班色": 5997,
      "底牌": 5998,
      "仙仙仙": 5999,
      "够叫": 6000,
      "双计": 6001,
      "餐病": 6002,
      "在晚": 6003,
      "尔尔尔型": 6004,
      "白口": 6005,
      "榆告": 6006,
      "料语": 6007,
      "们类": 6008,
      "控已": 6009,
      "戏态": 6010,
      "累习": 6011,
      "漳帮": 6012,
      "赛死": 6013,
      "门种": 6014,
      "书书层": 6015,
      "业业之": 6016,
      "府啊啊": 6017,
      "族族": 6018,
      "与变": 6019,
      "假假假假": 6020,
      "铝菏": 6021,
      "认育": 6022,
      "数农": 6023,
      "漓汉": 6024,
      "高技": 6025,
      "务燃": 6026,
      "七文": 6027,
      "撸哺": 6028,
      "极状": 6029,
      "脑脑脑脑脑脑": 6030,
      "讲讲讲": 6031,
      "结走": 6032,
      "完队": 6033,
      "施待": 6034,
      "分部": 6035,
      "向于": 6036,
      "角欢": 6037,
      "死死死死死": 6038,
      "好理": 6039,
      "标本": 6040,
      "政山": 6041,
      "款记": 6042,
      "视邃": 6043,
      "力螺": 6044,
      "盘路": 6045,
      "水核": 6046,
      "有尔尔型": 6047,
      "楼叫": 6048,
      "利部": 6049,
      "单吧": 6050,
      "际小": 6051,
      "承汉": 6052,
      "盘盘": 6053,
      "侧习": 6054,
      "概禺": 6055,
      "离话": 6056,
      "个个个": 6057,
      "群起": 6058,
      "女小小": 6059,
      "汉汉层": 6060,
      "赛住": 6061,
      "作坝": 6062,
      "事合": 6063,
      "练组": 6064,
      "分背": 6065,
      "蚌傻": 6066,
      "眼没": 6067,
      "事事事事事事事事": 6068,
      "东限": 6069,
      "易嘤嘤": 6070,
      "净吗吗": 6071,
      "学祀": 6072,
      "比你你": 6073,
      "飒飒飒飒": 6074,
      "空可": 6075,
      "率过": 6076,
      "势点点": 6077,
      "闪样": 6078,
      "直曲": 6079,
      "英科": 6080,
      "率李": 6081,
      "料患": 6082,
      "骨生": 6083,
      "黄所": 6084,
      "盆箱箱": 6085,
      "神神神神": 6086,
      "遭时": 6087,
      "不研": 6088,
      "水欢": 6089,
      "用用后": 6090,
      "称太太": 6091,
      "非传": 6092,
      "和增": 6093,
      "议最": 6094,
      "舜两": 6095,
      "产之": 6096,
      "验胺": 6097,
      "输满": 6098,
      "居居居居居居": 6099,
      "漓补": 6100,
      "式裔": 6101,
      "制连": 6102,
      "半特": 6103,
      "孩字": 6104,
      "父后": 6105,
      "旨服": 6106,
      "装商": 6107,
      "经力": 6108,
      "业业正": 6109,
      "士层": 6110,
      "几区": 6111,
      "濡普": 6112,
      "政四": 6113,
      "清清清": 6114,
      "高高高高高高高高高高高高高高高高高高高高高": 6115,
      "桃帮": 6116,
      "企企企": 6117,
      "有型记": 6118,
      "协优": 6119,
      "到智": 6120,
      "深山": 6121,
      "牺這": 6122,
      "更争": 6123,
      "骁普": 6124,
      "牺可可": 6125,
      "险终": 6126,
      "依志": 6127,
      "橙书": 6128,
      "式胧": 6129,
      "肛文": 6130,
      "楼楼楼楼楼楼楼楼楼楼楼楼楼楼楼楼楼楼": 6131,
      "量始": 6132,
      "取气": 6133,
      "锈除": 6134,
      "啊啊片": 6135,
      "间即": 6136,
      "义低": 6137,
      "高高啊啊啊": 6138,
      "蚌切": 6139,
      "流流显": 6140,
      "闪队": 6141,
      "获费": 6142,
      "象农": 6143,
      "话菩": 6144,
      "晋表": 6145,
      "为底": 6146,
      "齐毕": 6147,
      "型尔": 6148,
      "命命命命命命": 6149,
      "哺列": 6150,
      "何米": 6151,
      "红需": 6152,
      "阱游": 6153,
      "浏记": 6154,
      "品品品": 6155,
      "然列": 6156,
      "故室": 6157,
      "获褐": 6158,
      "被两两": 6159,
      "行商": 6160,
      "营配": 6161,
      "统怎": 6162,
      "至字": 6163,
      "磋药": 6164,
      "齐够": 6165,
      "练厢": 6166,
      "光报": 6167,
      "结结结结结结结": 6168,
      "前买": 6169,
      "取商": 6170,
      "作窝窝": 6171,
      "由由帮": 6172,
      "来复": 6173,
      "些金金": 6174,
      "阿支": 6175,
      "浦样": 6176,
      "更污": 6177,
      "整哪": 6178,
      "管连": 6179,
      "责十": 6180,
      "门防": 6181,
      "高高高合": 6182,
      "趁爸": 6183,
      "责特": 6184,
      "起起起": 6185,
      "进多": 6186,
      "利团熹": 6187,
      "用用字": 6188,
      "情走": 6189,
      "衫傻": 6190,
      "章技": 6191,
      "内史": 6192,
      "容米": 6193,
      "人换": 6194,
      "語語語": 6195,
      "城待": 6196,
      "险你": 6197,
      "伙苏": 6198,
      "除除层": 6199,
      "卉稻": 6200,
      "水改": 6201,
      "箱达": 6202,
      "仁现": 6203,
      "找干": 6204,
      "然感": 6205,
      "性度": 6206,
      "买太": 6207,
      "叫叫叫层": 6208,
      "处窝": 6209,
      "地背": 6210,
      "离核": 6211,
      "文文文": 6212,
      "过熹": 6213,
      "龙于": 6214,
      "象创": 6215,
      "围围围": 6216,
      "护演": 6217,
      "难我": 6218,
      "浏粉": 6219,
      "组但": 6220,
      "瑚神": 6221,
      "圈奖": 6222,
      "深理": 6223,
      "铝剧": 6224,
      "推点": 6225,
      "净吗": 6226,
      "尔党": 6227,
      "齐福": 6228,
      "脂羊": 6229,
      "斥转": 6230,
      "环核": 6231,
      "业细": 6232,
      "限元": 6233,
      "打防": 6234,
      "质质质质质": 6235,
      "提提提": 6236,
      "望比": 6237,
      "权胺": 6238,
      "单单华": 6239,
      "节直": 6240,
      "则则则": 6241,
      "坝该": 6242,
      "作是": 6243,
      "足指": 6244,
      "黄还": 6245,
      "心拉": 6246,
      "说置置": 6247,
      "独普": 6248,
      "引十十": 6249,
      "月菏": 6250,
      "至瑚": 6251,
      "标技": 6252,
      "榆牡": 6253,
      "才才才": 6254,
      "飞飞": 6255,
      "红十": 6256,
      "所白白": 6257,
      "数全": 6258,
      "食专": 6259,
      "总规": 6260,
      "仁汪": 6261,
      "地种": 6262,
      "给线": 6263,
      "究污污": 6264,
      "飒育": 6265,
      "开开开开开": 6266,
      "齐农": 6267,
      "遭备": 6268,
      "正院": 6269,
      "牺吊": 6270,
      "下下下下下下": 6271,
      "造核": 6272,
      "绝命": 6273,
      "再木": 6274,
      "验什": 6275,
      "汉下": 6276,
      "或集": 6277,
      "读管": 6278,
      "观转": 6279,
      "打正正": 6280,
      "眼起": 6281,
      "排己": 6282,
      "于于汪": 6283,
      "逸哪": 6284,
      "背长": 6285,
      "买螺": 6286,
      "色嘤": 6287,
      "照形": 6288,
      "速击击": 6289,
      "熹熹利": 6290,
      "舜牡": 6291,
      "号特": 6292,
      "益觉": 6293,
      "导李": 6294,
      "书疑": 6295,
      "录态": 6296,
      "打打器": 6297,
      "捞濡": 6298,
      "公卉": 6299,
      "病还": 6300,
      "达达": 6301,
      "及熹": 6302,
      "健漳": 6303,
      "际戍戍": 6304,
      "让合": 6305,
      "罗势": 6306,
      "尔粉": 6307,
      "迟迟迟": 6308,
      "持持持": 6309,
      "远远远局": 6310,
      "至欢": 6311,
      "肛网": 6312,
      "这样": 6313,
      "楚值": 6314,
      "爽自": 6315,
      "吧确": 6316,
      "汇论": 6317,
      "沌以": 6318,
      "晚骁": 6319,
      "绝漓": 6320,
      "适游": 6321,
      "百室": 6322,
      "团团团利": 6323,
      "府能": 6324,
      "疗疗疗": 6325,
      "责部": 6326,
      "层层全": 6327,
      "宝死": 6328,
      "由游": 6329,
      "除除阿": 6330,
      "说种": 6331,
      "师师师": 6332,
      "事啊啊": 6333,
      "动加": 6334,
      "绝层": 6335,
      "创维": 6336,
      "务直": 6337,
      "进画": 6338,
      "落兴": 6339,
      "地亲": 6340,
      "车右": 6341,
      "编从": 6342,
      "合合高": 6343,
      "馋采": 6344,
      "深基": 6345,
      "风服": 6346,
      "北普": 6347,
      "完害": 6348,
      "施福": 6349,
      "满满博": 6350,
      "择全": 6351,
      "推势": 6352,
      "料营": 6353,
      "词古": 6354,
      "涡养": 6355,
      "控演": 6356,
      "章单": 6357,
      "宦漳": 6358,
      "企生": 6359,
      "装板": 6360,
      "阿阿阿阿阿": 6361,
      "捧捧": 6362,
      "肛在": 6363,
      "卫卫": 6364,
      "园我": 6365,
      "到铝": 6366,
      "与傻": 6367,
      "求城": 6368,
      "买采": 6369,
      "故存": 6370,
      "啊我": 6371,
      "瑚队队": 6372,
      "错校": 6373,
      "议吟": 6374,
      "出还": 6375,
      "装是": 6376,
      "藏介": 6377,
      "六士": 6378,
      "说理": 6379,
      "和弩": 6380,
      "修修修": 6381,
      "超超": 6382,
      "厄试": 6383,
      "职語": 6384,
      "职康": 6385,
      "片片片片片": 6386,
      "至还": 6387,
      "新病": 6388,
      "磋熹": 6389,
      "清度": 6390,
      "义但": 6391,
      "究协": 6392,
      "原榆": 6393,
      "胧脱": 6394,
      "叫叫命": 6395,
      "其纱": 6396,
      "眼整": 6397,
      "诲击击": 6398,
      "最报": 6399,
      "护有": 6400,
      "忆种": 6401,
      "德蚌蚌": 6402,
      "蚌术": 6403,
      "式精": 6404,
      "经飒": 6405,
      "显显显显": 6406,
      "有型听": 6407,
      "太限": 6408,
      "莎双": 6409,
      "自自自自自自": 6410,
      "巴戏": 6411,
      "算算": 6412,
      "意意意": 6413,
      "析也": 6414,
      "吗公": 6415,
      "红建": 6416,
      "开确确": 6417,
      "划动": 6418,
      "序目": 6419,
      "使利": 6420,
      "责责责责": 6421,
      "胧公": 6422,
      "有有有粉": 6423,
      "效患": 6424,
      "车前": 6425,
      "送使": 6426,
      "越化": 6427,
      "义牌": 6428,
      "系锈": 6429,
      "风网": 6430,
      "何何何": 6431,
      "元致": 6432,
      "议率": 6433,
      "硝票": 6434,
      "价路路": 6435,
      "远及": 6436,
      "软卉": 6437,
      "下城": 6438,
      "电电电电": 6439,
      "脂桃": 6440,
      "单本本": 6441,
      "质除": 6442,
      "德际": 6443,
      "够择": 6444,
      "来录": 6445,
      "亲表": 6446,
      "马需": 6447,
      "鲸条": 6448,
      "巴失": 6449,
      "干团团": 6450,
      "类备": 6451,
      "情情情": 6452,
      "深言": 6453,
      "叫证": 6454,
      "官思": 6455,
      "变刚": 6456,
      "红先先": 6457,
      "再切": 6458,
      "失失失": 6459,
      "按难": 6460,
      "脂哺": 6461,
      "独独独": 6462,
      "比先": 6463,
      "官层": 6464,
      "指行": 6465,
      "划习": 6466,
      "制被": 6467,
      "因论": 6468,
      "戊支": 6469,
      "有尔村": 6470,
      "蚌宾": 6471,
      "确锈锈": 6472,
      "阳阳阳阳": 6473,
      "确脑": 6474,
      "造水": 6475,
      "发发源": 6476,
      "边型": 6477,
      "单没没": 6478,
      "解专": 6479,
      "浏有记": 6480,
      "元商": 6481,
      "次次次": 6482,
      "对交": 6483,
      "楼楼楼楼楼楼楼楼楼楼楼楼楼楼楼楼楼": 6484,
      "老老老": 6485,
      "调数": 6486,
      "离离": 6487,
      "太早": 6488,
      "前生": 6489,
      "五应": 6490,
      "由班": 6491,
      "单华华": 6492,
      "除除书": 6493,
      "都虽": 6494,
      "统个": 6495,
      "排舒": 6496,
      "按房": 6497,
      "健背": 6498,
      "工牌": 6499,
      "箱基": 6500,
      "型村村村": 6501,
      "燃初": 6502,
      "涡涡涡涡": 6503,
      "子班": 6504,
      "维房": 6505,
      "边磋": 6506,
      "边可": 6507,
      "找写": 6508,
      "刚刚刚": 6509,
      "巴之": 6510,
      "上斯": 6511,
      "做谁": 6512,
      "名坝": 6513,
      "出政": 6514,
      "裔精": 6515,
      "戏器": 6516,
      "视供": 6517,
      "企试": 6518,
      "尿险": 6519,
      "志起": 6520,
      "熹熹熹照": 6521,
      "用父": 6522,
      "看该": 6523,
      "禺型": 6524,
      "易易嘤": 6525,
      "伙伙伙": 6526,
      "北弩": 6527,
      "决补": 6528,
      "迟包包": 6529,
      "问镰": 6530,
      "自除": 6531,
      "于于害": 6532,
      "藏藏藏藏藏藏藏藏藏藏藏藏藏藏藏藏": 6533,
      "汪害": 6534,
      "分同": 6535,
      "边票": 6536,
      "版版镇": 6537,
      "控收": 6538,
      "戍普": 6539,
      "尔尔村": 6540,
      "光列": 6541,
      "达净": 6542,
      "整路": 6543,
      "辈锈": 6544,
      "委满": 6545,
      "内這": 6546,
      "责然": 6547,
      "车文": 6548,
      "分知团": 6549,
      "据向": 6550,
      "议羊": 6551,
      "疑毕": 6552,
      "戊爽": 6553,
      "十采": 6554,
      "料终": 6555,
      "承合": 6556,
      "义买": 6557,
      "找食": 6558,
      "六域": 6559,
      "界哺": 6560,
      "剌术": 6561,
      "明什": 6562,
      "这深": 6563,
      "科部": 6564,
      "务别": 6565,
      "做整": 6566,
      "省动": 6567,
      "包至": 6568,
      "喜祀": 6569,
      "吧吧吧吧吧": 6570,
      "爸产": 6571,
      "查双": 6572,
      "后后由由": 6573,
      "发凡": 6574,
      "他他他": 6575,
      "果亲": 6576,
      "爱爱爱爱": 6577,
      "是是是": 6578,
      "话论": 6579,
      "育岁": 6580,
      "责汇": 6581,
      "组菩": 6582,
      "叫除除除": 6583,
      "半路": 6584,
      "行行行": 6585,
      "份两": 6586,
      "戏现": 6587,
      "这济": 6588,
      "少海": 6589,
      "作遭": 6590,
      "楼本": 6591,
      "胧胧化": 6592,
      "角伙": 6593,
      "力复": 6594,
      "民流": 6595,
      "你你版": 6596,
      "系画": 6597,
      "门底": 6598,
      "转转转转": 6599,
      "趁教": 6600,
      "日日日日日日日日": 6601,
      "民遭": 6602,
      "女普": 6603,
      "李拉": 6604,
      "务他": 6605,
      "找药": 6606,
      "皮道": 6607,
      "士漓": 6608,
      "营病": 6609,
      "线气": 6610,
      "纱还": 6611,
      "亲果": 6612,
      "据致": 6613,
      "仅告": 6614,
      "县于": 6615,
      "节餐": 6616,
      "施施施施施": 6617,
      "亮态": 6618,
      "示斯": 6619,
      "直所": 6620,
      "侧论工": 6621,
      "管班": 6622,
      "欢人": 6623,
      "外闪": 6624,
      "亲地": 6625,
      "箱噶": 6626,
      "门刚": 6627,
      "把概": 6628,
      "趁母": 6629,
      "彰星": 6630,
      "戍极": 6631,
      "士噶噶": 6632,
      "想报": 6633,
      "连游": 6634,
      "工经": 6635,
      "叫汉": 6636,
      "牌术": 6637,
      "天开": 6638,
      "进形": 6639,
      "理理言": 6640,
      "皮皮皮皮": 6641,
      "据早": 6642,
      "待近": 6643,
      "员褐": 6644,
      "益组": 6645,
      "检概": 6646,
      "菏刚": 6647,
      "喜沌": 6648,
      "明哈": 6649,
      "造份份": 6650,
      "健告": 6651,
      "对曲": 6652,
      "府府府府府府": 6653,
      "势到": 6654,
      "齐数": 6655,
      "演吊": 6656,
      "制舜": 6657,
      "这幂": 6658,
      "府宝": 6659,
      "政易": 6660,
      "志导": 6661,
      "清复": 6662,
      "并流": 6663,
      "江易": 6664,
      "该该该该": 6665,
      "用用流": 6666,
      "锈锈技": 6667,
      "己商": 6668,
      "确华华": 6669,
      "半哪": 6670,
      "七七七": 6671,
      "队你于": 6672,
      "天锈": 6673,
      "少楚楚": 6674,
      "份星": 6675,
      "可可可可": 6676,
      "防刚": 6677,
      "没技": 6678,
      "古瑚": 6679,
      "女骁": 6680,
      "晚晚那": 6681,
      "清但": 6682,
      "小晚": 6683,
      "海海博": 6684,
      "窘窘": 6685,
      "言镰很": 6686,
      "板区": 6687,
      "税心": 6688,
      "深好": 6689,
      "菏经": 6690,
      "康失": 6691,
      "之胺": 6692,
      "小际": 6693,
      "建研": 6694,
      "共是": 6695,
      "笑汇": 6696,
      "局张": 6697,
      "补基": 6698,
      "远磋": 6699,
      "斥采": 6700,
      "达因": 6701,
      "北北增": 6702,
      "局率": 6703,
      "本本本本本本本本本本本本本本本本": 6704,
      "总語": 6705,
      "哺帮": 6706,
      "厢超": 6707,
      "语害": 6708,
      "特反": 6709,
      "完比": 6710,
      "活区": 6711,
      "或长": 6712,
      "死天天": 6713,
      "城调": 6714,
      "死死脱": 6715,
      "欢凡": 6716,
      "适后": 6717,
      "击如": 6718,
      "外吗吗": 6719,
      "政黄": 6720,
      "同红": 6721,
      "怎怎怎": 6722,
      "称序": 6723,
      "双论": 6724,
      "权复": 6725,
      "确确华": 6726,
      "趁底": 6727,
      "服表": 6728,
      "芋净": 6729,
      "由记": 6730,
      "看水": 6731,
      "你你闪": 6732,
      "称度": 6733,
      "查习": 6734,
      "宦宦宦": 6735,
      "找磋磋": 6736,
      "下高": 6737,
      "直兴": 6738,
      "并粉": 6739,
      "车独": 6740,
      "菩色": 6741,
      "指生": 6742,
      "江山": 6743,
      "白山": 6744,
      "园创": 6745,
      "弩弩弩弩": 6746,
      "式卉": 6747,
      "房求": 6748,
      "施啊啊": 6749,
      "明产": 6750,
      "接哪": 6751,
      "制桃": 6752,
      "究优": 6753,
      "们们们们": 6754,
      "感取": 6755,
      "言理很": 6756,
      "群火": 6757,
      "拉照": 6758,
      "以象": 6759,
      "运票": 6760,
      "被强": 6761,
      "并强": 6762,
      "小弩": 6763,
      "护护护护": 6764,
      "民特": 6765,
      "个岁": 6766,
      "捧发": 6767,
      "解根": 6768,
      "满满满": 6769,
      "确确确级": 6770,
      "除除高": 6771,
      "你你于": 6772,
      "得楚": 6773,
      "该处": 6774,
      "眼全": 6775,
      "高高高高高高高高高高高高高高高高高高高高高高": 6776,
      "离责": 6777,
      "制提": 6778,
      "城火": 6779,
      "统条": 6780,
      "问问": 6781,
      "仅傻": 6782,
      "言理言": 6783,
      "辈疑": 6784,
      "报同": 6785,
      "八确": 6786,
      "干根": 6787,
      "人吗": 6788,
      "厢位": 6789,
      "查样": 6790,
      "组螺": 6791,
      "置曲": 6792,
      "盆上": 6793,
      "又必": 6794,
      "舒舒舒舒舒": 6795,
      "气太": 6796,
      "证介": 6797,
      "价析": 6798,
      "镇镇镇": 6799,
      "效迟": 6800,
      "班游": 6801,
      "往往往往": 6802,
      "叫叫爽": 6803,
      "扇扇两": 6804,
      "衫骁": 6805,
      "错包包": 6806,
      "住金": 6807,
      "小德德": 6808,
      "标施": 6809,
      "斥虽": 6810,
      "铝吊": 6811,
      "示上": 6812,
      "己面": 6813,
      "江深": 6814,
      "比比你": 6815,
      "益在": 6816,
      "些越": 6817,
      "侧侧容": 6818,
      "健地": 6819,
      "教胺": 6820,
      "承承啊": 6821,
      "周长": 6822,
      "形博": 6823,
      "群全": 6824,
      "知团团团": 6825,
      "维噶": 6826,
      "话种": 6827,
      "科子": 6828,
      "神比": 6829,
      "绝高": 6830,
      "电色": 6831,
      "择脑": 6832,
      "上上强": 6833,
      "补奖": 6834,
      "讲這": 6835,
      "舜坝": 6836,
      "管线": 6837,
      "球速": 6838,
      "供月": 6839,
      "不镰镰": 6840,
      "对四": 6841,
      "师网": 6842,
      "从份": 6843,
      "个便": 6844,
      "部部责": 6845,
      "问源": 6846,
      "撸脂": 6847,
      "录来": 6848,
      "鲸年": 6849,
      "值值舒": 6850,
      "乎官": 6851,
      "沌料": 6852,
      "买义": 6853,
      "至显": 6854,
      "传传控": 6855,
      "胧海": 6856,
      "走做": 6857,
      "盆起": 6858,
      "协即": 6859,
      "及利": 6860,
      "根克": 6861,
      "城箱箱": 6862,
      "游游游": 6863,
      "病配": 6864,
      "研感": 6865,
      "序委": 6866,
      "新新新": 6867,
      "时造": 6868,
      "过责": 6869,
      "协害": 6870,
      "啊啊啊啊啊啊啊啊啊啊啊啊": 6871,
      "传注": 6872,
      "个性": 6873,
      "啊啊合": 6874,
      "进锈": 6875,
      "古什": 6876,
      "养龙": 6877,
      "禺尔记": 6878,
      "用用用显": 6879,
      "结级级": 6880,
      "断集": 6881,
      "十期": 6882,
      "菩汇": 6883,
      "齐齐齐齐齐": 6884,
      "楼高高": 6885,
      "过馋馋": 6886,
      "说山": 6887,
      "镇求": 6888,
      "防卡": 6889,
      "展展展展": 6890,
      "根白": 6891,
      "据感": 6892,
      "党两": 6893,
      "资周": 6894,
      "瑚思": 6895,
      "术术术术": 6896,
      "听保": 6897,
      "学少": 6898,
      "粉遭": 6899,
      "事高高": 6900,
      "标待": 6901,
      "浏位": 6902,
      "演有": 6903,
      "蚌蚌蚌蚌": 6904,
      "巴断": 6905,
      "很好": 6906,
      "易患": 6907,
      "书宝": 6908,
      "桃作窝": 6909,
      "叫农": 6910,
      "获板": 6911,
      "食头": 6912,
      "育以": 6913,
      "钱内": 6914,
      "列吟": 6915,
      "如裔裔": 6916,
      "业正正": 6917,
      "剌患": 6918,
      "晚京": 6919,
      "却性": 6920,
      "盆全": 6921,
      "究环": 6922,
      "错终": 6923,
      "考考考考考考考": 6924,
      "支宝": 6925,
      "读游": 6926,
      "包角": 6927,
      "比比比比比": 6928,
      "问论": 6929,
      "华没没": 6930,
      "大月": 6931,
      "和认": 6932,
      "杀除": 6933,
      "查发": 6934,
      "得少": 6935,
      "送英": 6936,
      "净补": 6937,
      "所色": 6938,
      "证官": 6939,
      "不重": 6940,
      "菩游": 6941,
      "旨子": 6942,
      "版实": 6943,
      "了件": 6944,
      "施承": 6945,
      "帮游": 6946,
      "经买": 6947,
      "菩觉": 6948,
      "解速": 6949,
      "素开": 6950,
      "深苏": 6951,
      "宾吃": 6952,
      "对角": 6953,
      "在那": 6954,
      "舜孩": 6955,
      "够福": 6956,
      "藏维": 6957,
      "楼楼楼楼楼楼楼楼楼楼楼楼楼楼楼楼楼楼楼": 6958,
      "凡接": 6959,
      "心心心心": 6960,
      "戊命": 6961,
      "后后用": 6962,
      "职平": 6963,
      "车濡": 6964,
      "像动": 6965,
      "元环": 6966,
      "已有": 6967,
      "深拨": 6968,
      "控剧": 6969,
      "门告": 6970,
      "带后": 6971,
      "场艺": 6972,
      "哺界": 6973,
      "得早": 6974,
      "号报": 6975,
      "铝位": 6976,
      "打打打正": 6977,
      "诲诲诲": 6978,
      "过过馋": 6979,
      "眼也": 6980,
      "确单单": 6981,
      "部艺": 6982,
      "镇汉": 6983,
      "参效": 6984,
      "等度": 6985,
      "并牺": 6986,
      "发发突": 6987,
      "弩年": 6988,
      "装共": 6989,
      "脱间": 6990,
      "七其": 6991,
      "易口": 6992,
      "尿之汪": 6993,
      "子或": 6994,
      "楚获": 6995,
      "那那那": 6996,
      "织住": 6997,
      "漓质": 6998,
      "伙言": 6999,
      "士福": 7000,
      "桃列": 7001,
      "错完完": 7002,
      "解件": 7003,
      "所四": 7004,
      "芋超税": 7005,
      "汉汉汉汉汉汉": 7006,
      "近府": 7007,
      "亚孩": 7008,
      "部长": 7009,
      "号票": 7010,
      "政资": 7011,
      "决实": 7012,
      "组前": 7013,
      "宝宝下": 7014,
      "时被": 7015,
      "字后": 7016,
      "且队": 7017,
      "道逸": 7018,
      "计换位": 7019,
      "仙死": 7020,
      "侧换": 7021,
      "究即": 7022,
      "戏或": 7023,
      "尿正": 7024,
      "本层": 7025,
      "向回": 7026,
      "苏苏苏": 7027,
      "报坝": 7028,
      "置置嘤": 7029,
      "漓书": 7030,
      "务点": 7031,
      "过科": 7032,
      "什语": 7033,
      "边拉": 7034,
      "底际": 7035,
      "协厄": 7036,
      "费费费": 7037,
      "蚌涡": 7038,
      "成菏": 7039,
      "现之": 7040,
      "沌试": 7041,
      "幂月": 7042,
      "背仅": 7043,
      "語平": 7044,
      "汇米": 7045,
      "熹熹英": 7046,
      "层层书": 7047,
      "且正正": 7048,
      "限核": 7049,
      "务餐": 7050,
      "能考": 7051,
      "爽农": 7052,
      "注传婚": 7053,
      "品维": 7054,
      "到卉": 7055,
      "业业业业": 7056,
      "纪纪": 7057,
      "中型": 7058,
      "置山": 7059,
      "步步步步步": 7060,
      "除除除除除除除除除除除除除": 7061,
      "已护": 7062,
      "开阳": 7063,
      "极木": 7064,
      "戊高": 7065,
      "己那": 7066,
      "进按": 7067,
      "大供": 7068,
      "因智": 7069,
      "花利": 7070,
      "房人": 7071,
      "祀祀厄": 7072,
      "包终": 7073,
      "本本高": 7074,
      "均观": 7075,
      "标汉": 7076,
      "什什什什": 7077,
      "众长": 7078,
      "戍女": 7079,
      "期推": 7080,
      "值切": 7081,
      "康康爸": 7082,
      "地根": 7083,
      "琢琢": 7084,
      "线列": 7085,
      "早验": 7086,
      "没吧": 7087,
      "兴点": 7088,
      "育场": 7089,
      "脂健": 7090,
      "尔村村": 7091,
      "胺胺胺": 7092,
      "营患": 7093,
      "级辈": 7094,
      "先比": 7095,
      "宦阱": 7096,
      "给板": 7097,
      "撸科": 7098,
      "飒再": 7099,
      "漳漳漳": 7100,
      "音金": 7101,
      "哪种": 7102,
      "太模": 7103,
      "有這": 7104,
      "然仁": 7105,
      "养涡": 7106,
      "棍科": 7107,
      "然故": 7108,
      "右牌": 7109,
      "管作": 7110,
      "齐八": 7111,
      "标府": 7112,
      "高啊高": 7113,
      "联细": 7114,
      "共给": 7115,
      "确福": 7116,
      "初妇": 7117,
      "哺榆": 7118,
      "补侧": 7119,
      "心半": 7120,
      "势星": 7121,
      "先词": 7122,
      "存板": 7123,
      "同便": 7124,
      "果母": 7125,
      "鲸名": 7126,
      "处那": 7127,
      "脑乎": 7128,
      "势查": 7129,
      "于于你": 7130,
      "结应": 7131,
      "课应": 7132,
      "断复": 7133,
      "义经": 7134,
      "层噶": 7135,
      "易山": 7136,
      "李走": 7137,
      "纱直": 7138,
      "少胺": 7139,
      "康剌": 7140,
      "断趁": 7141,
      "京优": 7142,
      "语校": 7143,
      "河词": 7144,
      "吊演": 7145,
      "哈哈哈": 7146,
      "但铝": 7147,
      "什仁": 7148,
      "进系": 7149,
      "格认": 7150,
      "民从": 7151,
      "论英": 7152,
      "友境": 7153,
      "向害": 7154,
      "层农": 7155,
      "看线": 7156,
      "累理": 7157,
      "精精精": 7158,
      "天笙": 7159,
      "初社": 7160,
      "祀喜喜": 7161,
      "取胺": 7162,
      "致回": 7163,
      "日日日": 7164,
      "还黄": 7165,
      "土土": 7166,
      "箱眼": 7167,
      "史馋": 7168,
      "古马": 7169,
      "楚喜": 7170,
      "层调": 7171,
      "天胧": 7172,
      "面应": 7173,
      "适制": 7174,
      "病免": 7175,
      "学骁": 7176,
      "增和": 7177,
      "神队": 7178,
      "视式": 7179,
      "超随": 7180,
      "粉流": 7181,
      "除高高": 7182,
      "车骁": 7183,
      "义称": 7184,
      "联爸": 7185,
      "巴产": 7186,
      "刚资": 7187,
      "该坝": 7188,
      "难能": 7189,
      "欢计": 7190,
      "裔裔裔裔外": 7191,
      "均非": 7192,
      "网们": 7193,
      "解球": 7194,
      "但观": 7195,
      "记遭": 7196,
      "商场": 7197,
      "使半": 7198,
      "包效效": 7199,
      "面面面面": 7200,
      "累仅": 7201,
      "习发源": 7202,
      "背地": 7203,
      "证漓": 7204,
      "死脱脱": 7205,
      "分利团团": 7206,
      "时时时时": 7207,
      "村专": 7208,
      "盟科": 7209,
      "榆作": 7210,
      "动光": 7211,
      "旨种": 7212,
      "每些速速": 7213,
      "药药利": 7214,
      "为弩": 7215,
      "有有有记": 7216,
      "书书除": 7217,
      "但发": 7218,
      "角餐": 7219,
      "阱帮": 7220,
      "有尔件": 7221,
      "团路": 7222,
      "欢练": 7223,
      "欢琢": 7224,
      "团头": 7225,
      "有尔听": 7226,
      "处元": 7227,
      "序凡": 7228,
      "其色": 7229,
      "欢智": 7230,
      "性前": 7231,
      "羊羊羊羊羊": 7232,
      "吟列": 7233,
      "力亮": 7234,
      "盘或": 7235,
      "基计": 7236,
      "舒切": 7237,
      "数房": 7238,
      "单单单单单单单": 7239,
      "镰苏": 7240,
      "质全": 7241,
      "知非": 7242,
      "业明": 7243,
      "热热热": 7244,
      "序铝": 7245,
      "怎调": 7246,
      "深必": 7247,
      "如如住": 7248,
      "技技技技技技技技": 7249,
      "尿尿你": 7250,
      "特光": 7251,
      "本藏": 7252,
      "华华华华华华华": 7253,
      "乎乎乎乎乎": 7254,
      "话线": 7255,
      "号列": 7256,
      "米是": 7257,
      "园全": 7258,
      "面五": 7259,
      "际际际": 7260,
      "士决": 7261,
      "药磋磋": 7262,
      "通亲": 7263,
      "浏演": 7264,
      "欢厢": 7265,
      "两两时": 7266,
      "晚己条": 7267,
      "完错": 7268,
      "宦由由": 7269,
      "脱求": 7270,
      "盆我": 7271,
      "模前": 7272,
      "熹拉拉": 7273,
      "习目": 7274,
      "到价": 7275,
      "身身观": 7276,
      "防地": 7277,
      "证域": 7278,
      "啊福": 7279,
      "喜望": 7280,
      "注传身": 7281,
      "则周": 7282,
      "人目": 7283,
      "又牌": 7284,
      "改工": 7285,
      "补我": 7286,
      "汇双": 7287,
      "漓奖": 7288,
      "做票": 7289,
      "成钱": 7290,
      "变失": 7291,
      "趁汪": 7292,
      "模模模模": 7293,
      "到发": 7294,
      "牡名": 7295,
      "兴苏": 7296,
      "统行": 7297,
      "宾喜喜": 7298,
      "笑仅": 7299,
      "故故故": 7300,
      "捧红": 7301,
      "觉直": 7302,
      "告门": 7303,
      "系福福": 7304,
      "房软": 7305,
      "捞骁": 7306,
      "且器": 7307,
      "继英": 7308,
      "越住住": 7309,
      "合高高": 7310,
      "再和": 7311,
      "与术": 7312,
      "参易": 7313,
      "特浦": 7314,
      "她戍": 7315,
      "没辈": 7316,
      "画奖": 7317,
      "闪卉": 7318,
      "确毕": 7319,
      "模年": 7320,
      "试望": 7321,
      "支疑": 7322,
      "初黄": 7323,
      "问镰镰": 7324,
      "舜榆": 7325,
      "据红": 7326,
      "讲有": 7327,
      "反光": 7328,
      "歌祀": 7329,
      "及局": 7330,
      "育厄": 7331,
      "更老老": 7332,
      "油油油油": 7333,
      "硝边": 7334,
      "据十": 7335,
      "女傻": 7336,
      "盆待": 7337,
      "除啊啊啊": 7338,
      "与底": 7339,
      "本华": 7340,
      "楼片": 7341,
      "欢接": 7342,
      "高高高高高高高高高高高高高高高高高高高高高高高": 7343,
      "章章笙": 7344,
      "語喜": 7345,
      "菏测": 7346,
      "型都": 7347,
      "确确吧": 7348,
      "叫楼楼楼": 7349,
      "采十": 7350,
      "官数": 7351,
      "熹谁": 7352,
      "噶全": 7353,
      "际板": 7354,
      "到析": 7355,
      "书福": 7356,
      "花利团": 7357,
      "儿维": 7358,
      "民虽": 7359,
      "香之": 7360,
      "统期": 7361,
      "济创": 7362,
      "窝原": 7363,
      "管榆": 7364,
      "也例": 7365,
      "白白说": 7366,
      "局局眼": 7367,
      "江器": 7368,
      "统争": 7369,
      "电门": 7370,
      "县县害害": 7371,
      "桃显显": 7372,
      "取研": 7373,
      "历比": 7374,
      "养胺": 7375,
      "提牡": 7376,
      "士农": 7377,
      "它会": 7378,
      "知知知知知": 7379,
      "戏正": 7380,
      "盘活": 7381,
      "先致": 7382,
      "剌次": 7383,
      "门门宦": 7384,
      "来加": 7385,
      "立星": 7386,
      "拨铝": 7387,
      "后后字": 7388,
      "不你": 7389,
      "德几": 7390,
      "角别": 7391,
      "北底": 7392,
      "語祀": 7393,
      "决起": 7394,
      "长或": 7395,
      "究究污": 7396,
      "产权": 7397,
      "這婚": 7398,
      "高高高高高高高高高高高高高高高高高高高高高高高高": 7399,
      "发论工": 7400,
      "八八八八八八": 7401,
      "人铝": 7402,
      "斥称": 7403,
      "制遭": 7404,
      "小再再": 7405,
      "信章": 7406,
      "米州": 7407,
      "变识": 7408,
      "尿作": 7409,
      "宾傻": 7410,
      "爽层层": 7411,
      "从编": 7412,
      "主主主": 7413,
      "她窝": 7414,
      "引清": 7415,
      "汇计": 7416,
      "迟职": 7417,
      "路路知": 7418,
      "取验": 7419,
      "疑锈": 7420,
      "网文": 7421,
      "产复": 7422,
      "息难": 7423,
      "容位": 7424,
      "士按": 7425,
      "出四": 7426,
      "断或": 7427,
      "用被": 7428,
      "迟只": 7429,
      "转低": 7430,
      "时作": 7431,
      "外儿儿": 7432,
      "岁便": 7433,
      "支高高": 7434,
      "阿锈": 7435,
      "需器": 7436,
      "于什": 7437,
      "给责": 7438,
      "你你比": 7439,
      "样论": 7440,
      "施下": 7441,
      "送找": 7442,
      "应应城": 7443,
      "款边": 7444,
      "处该": 7445,
      "统场": 7446,
      "查点": 7447,
      "硝可": 7448,
      "剌骨": 7449,
      "对至": 7450,
      "尔硝硝": 7451,
      "成成成成": 7452,
      "同共": 7453,
      "戍戍舒": 7454,
      "到起": 7455,
      "芋随": 7456,
      "级形": 7457,
      "楼除除": 7458,
      "控逸": 7459,
      "改关": 7460,
      "量邃": 7461,
      "由类": 7462,
      "其适": 7463,
      "承维": 7464,
      "研王": 7465,
      "照晋": 7466,
      "度度度度": 7467,
      "笙华": 7468,
      "重同": 7469,
      "区油": 7470,
      "地众": 7471,
      "确结": 7472,
      "德德弩": 7473,
      "叫叫自": 7474,
      "侧论突": 7475,
      "汇工": 7476,
      "检食": 7477,
      "规总": 7478,
      "苏苏很": 7479,
      "装少": 7480,
      "面争": 7481,
      "疑福": 7482,
      "山山妇": 7483,
      "支死": 7484,
      "整域": 7485,
      "拿天": 7486,
      "于险": 7487,
      "行买": 7488,
      "资类": 7489,
      "讲村": 7490,
      "电嘤嘤": 7491,
      "吟哺": 7492,
      "污污污": 7493,
      "则斥": 7494,
      "质素": 7495,
      "对包": 7496,
      "防打": 7497,
      "直政": 7498,
      "复什": 7499,
      "连服": 7500,
      "控传": 7501,
      "更怎": 7502,
      "仅亲": 7503,
      "风阱": 7504,
      "防防防防": 7505,
      "学优": 7506,
      "焖焖": 7507,
      "史史史史": 7508,
      "瑚闪": 7509,
      "班由由": 7510,
      "楚楚向": 7511,
      "部州": 7512,
      "十馋": 7513,
      "益其": 7514,
      "管游": 7515,
      "浦计": 7516,
      "语望": 7517,
      "限离": 7518,
      "发志": 7519,
      "噶官": 7520,
      "习侧": 7521,
      "坝名": 7522,
      "原是": 7523,
      "师独": 7524,
      "熹爱": 7525,
      "祀极": 7526,
      "旨动": 7527,
      "造实实": 7528,
      "团拉拉": 7529,
      "也进": 7530,
      "达随": 7531,
      "按求": 7532,
      "面京": 7533,
      "境企": 7534,
      "才高": 7535,
      "意大": 7536,
      "傻涡": 7537,
      "妇妇妇": 7538,
      "把讲": 7539,
      "啊高高": 7540,
      "半利": 7541,
      "眼李": 7542,
      "牌前": 7543,
      "盆宝": 7544,
      "角务": 7545,
      "金金金": 7546,
      "管莎": 7547,
      "胧裔": 7548,
      "送利": 7549,
      "始省": 7550,
      "历你": 7551,
      "忆直": 7552,
      "公裔裔": 7553,
      "身禺": 7554,
      "近承": 7555,
      "啊府": 7556,
      "市市市市市": 7557,
      "戏古": 7558,
      "词伙": 7559,
      "宾切": 7560,
      "查委": 7561,
      "北际": 7562,
      "开天天": 7563,
      "标标标标标": 7564,
      "橙没": 7565,
      "言深": 7566,
      "对参": 7567,
      "显用用": 7568,
      "作那": 7569,
      "厢换": 7570,
      "连牡": 7571,
      "习房": 7572,
      "器器器器": 7573,
      "用显显": 7574,
      "汪县": 7575,
      "经称": 7576,
      "国六": 7577,
      "藏福": 7578,
      "补思": 7579,
      "择数": 7580,
      "时遭": 7581,
      "菩其": 7582,
      "照种": 7583,
      "及找": 7584,
      "生营": 7585,
      "锈锈系": 7586,
      "检越": 7587,
      "环乎": 7588,
      "高府": 7589,
      "熹熹熹熹熹": 7590,
      "阳数": 7591,
      "称称称": 7592,
      "有有村": 7593,
      "邃路": 7594,
      "河视": 7595,
      "之巴": 7596,
      "但菏": 7597,
      "个太": 7598,
      "海海海海": 7599,
      "牡榆": 7600,
      "两两彰": 7601,
      "盆承": 7602,
      "认认认": 7603,
      "来江": 7604,
      "楼介": 7605,
      "根所": 7606,
      "引收": 7607,
      "感窝": 7608,
      "态患": 7609,
      "啊箱": 7610,
      "八介": 7611,
      "远导": 7612,
      "生纱": 7613,
      "我志": 7614,
      "终你": 7615,
      "扇孩": 7616,
      "公打": 7617,
      "复趁": 7618,
      "己是": 7619,
      "累語": 7620,
      "序容": 7621,
      "对所": 7622,
      "温表": 7623,
      "增弩": 7624,
      "岁玩": 7625,
      "身传传": 7626,
      "李李李李": 7627,
      "服服服": 7628,
      "德再": 7629,
      "因价": 7630,
      "终病": 7631,
      "开结": 7632,
      "干子": 7633,
      "势样": 7634,
      "半心": 7635,
      "语楚": 7636,
      "成皮": 7637,
      "汉盆盆": 7638,
      "资转": 7639,
      "得企": 7640,
      "齐六": 7641,
      "注传控": 7642,
      "及票": 7643,
      "爵下": 7644,
      "马古": 7645,
      "居居居居居居居": 7646,
      "月视": 7647,
      "阱阱阱": 7648,
      "儿汉汉": 7649,
      "十红": 7650,
      "内注": 7651,
      "读桃": 7652,
      "濡骁": 7653,
      "旨识": 7654,
      "且业业": 7655,
      "楼楼高": 7656,
      "限遭": 7657,
      "衫学": 7658,
      "园锈": 7659,
      "反反羊": 7660,
      "奖全": 7661,
      "层脑": 7662,
      "于明": 7663,
      "月铝": 7664,
      "解花": 7665,
      "河非": 7666,
      "运运运": 7667,
      "语化": 7668,
      "右原": 7669,
      "死赛": 7670,
      "击速速": 7671,
      "达整": 7672,
      "类嘤": 7673,
      "理说": 7674,
      "班健": 7675,
      "德德蚌": 7676,
      "必政": 7677,
      "命数": 7678,
      "空牺": 7679,
      "划汇": 7680,
      "走吧": 7681,
      "语向": 7682,
      "效政": 7683,
      "者者者": 7684,
      "责离": 7685,
      "解应": 7686,
      "制该": 7687,
      "改接": 7688,
      "义斥": 7689,
      "地干": 7690,
      "线仅": 7691,
      "到计": 7692,
      "晋亮": 7693,
      "香爸": 7694,
      "趁仁": 7695,
      "欢铝": 7696,
      "两两两两两": 7697,
      "除介": 7698,
      "行水": 7699,
      "浏尔": 7700,
      "并做": 7701,
      "课课课": 7702,
      "压待": 7703,
      "城人": 7704,
      "使药": 7705,
      "斯上": 7706,
      "卉起": 7707,
      "卉铝": 7708,
      "黄政": 7709,
      "宾宾楚": 7710,
      "录亲": 7711,
      "为际": 7712,
      "濡母": 7713,
      "核厢": 7714,
      "北北网": 7715,
      "厄望": 7716,
      "脱喜": 7717,
      "术们": 7718,
      "部费": 7719,
      "园赛": 7720,
      "创宝": 7721,
      "进仙": 7722,
      "浦芋": 7723,
      "效四": 7724,
      "复仅": 7725,
      "够域": 7726,
      "宦班": 7727,
      "钱传": 7728,
      "复千": 7729,
      "菩记": 7730,
      "漓漓漓漓漓漓漓": 7731,
      "哺局": 7732,
      "身這": 7733,
      "身护": 7734,
      "硝吊": 7735,
      "窝己": 7736,
      "音速": 7737,
      "后由门": 7738,
      "率最": 7739,
      "孩两": 7740,
      "教总": 7741,
      "江江江": 7742,
      "直还还": 7743,
      "状试": 7744,
      "车表": 7745,
      "度纱": 7746,
      "产业": 7747,
      "更装": 7748,
      "补汉": 7749,
      "到凡": 7750,
      "太米": 7751,
      "啊箱箱": 7752,
      "元个": 7753,
      "职养": 7754,
      "吗闪": 7755,
      "黄交": 7756,
      "脑脑脑脑脑脑脑脑": 7757,
      "楼层层": 7758,
      "消消消消": 7759,
      "研捧": 7760,
      "细业": 7761,
      "其被": 7762,
      "胺龙": 7763,
      "浏有型": 7764,
      "切值值": 7765,
      "行前": 7766,
      "专听": 7767,
      "单确确": 7768,
      "旨巴巴": 7769,
      "目英": 7770,
      "命毕": 7771,
      "欢样": 7772,
      "争多": 7773,
      "且戏": 7774,
      "划什": 7775,
      "全决": 7776,
      "班电": 7777,
      "帮阱": 7778,
      "笙技": 7779,
      "连漳": 7780,
      "語得": 7781,
      "别配": 7782,
      "彰份": 7783,
      "知量": 7784,
      "集或": 7785,
      "绝叫": 7786,
      "楼楼楼楼楼楼楼楼楼楼楼楼楼楼楼楼楼楼楼楼": 7787,
      "怎五": 7788,
      "预预": 7789,
      "景景景景景景景景": 7790,
      "爽爽爽爽爽爽爽爽爽爽爽爽爽爽爽爽": 7791,
      "共离": 7792,
      "形省": 7793,
      "想坝": 7794,
      "词需": 7795,
      "北北告": 7796,
      "德德小": 7797,
      "起我": 7798,
      "两两吟": 7799,
      "生前": 7800,
      "百被": 7801,
      "周克": 7802,
      "哪则": 7803,
      "速金德": 7804,
      "结结级": 7805,
      "亮亮亮亮": 7806,
      "除章": 7807,
      "没酒": 7808,
      "创施": 7809,
      "剌蚌": 7810,
      "安深": 7811,
      "实份": 7812,
      "认戍": 7813,
      "藏藏藏藏藏藏藏": 7814,
      "规傻": 7815,
      "火箱": 7816,
      "装模": 7817,
      "去螺": 7818,
      "舜名": 7819,
      "戊除": 7820,
      "爱爱谁": 7821,
      "其字": 7822,
      "份份份实": 7823,
      "室亲": 7824,
      "齐介": 7825,
      "盆群": 7826,
      "牌网": 7827,
      "什气": 7828,
      "开开华": 7829,
      "管遭": 7830,
      "班父": 7831,
      "没系": 7832,
      "组限": 7833,
      "数市": 7834,
      "便苏": 7835,
      "盘长": 7836,
      "天确确": 7837,
      "年却": 7838,
      "府居": 7839,
      "水份": 7840,
      "感离": 7841,
      "查苏": 7842,
      "室捞": 7843,
      "变经": 7844,
      "脱死死": 7845,
      "涡定": 7846,
      "笙笙级": 7847,
      "参置": 7848,
      "浦琢": 7849,
      "务思": 7850,
      "标合": 7851,
      "尿之趁": 7852,
      "福福福福福福福": 7853,
      "理白": 7854,
      "用两": 7855,
      "获同": 7856,
      "造课": 7857,
      "鲸亚": 7858,
      "服门": 7859,
      "母经": 7860,
      "阳本": 7861,
      "黄好": 7862,
      "并从": 7863,
      "依依": 7864,
      "母普": 7865,
      "组东": 7866,
      "叫叫叫叫叫叫叫叫叫叫叫": 7867,
      "羊羊子": 7868,
      "城达": 7869,
      "类色": 7870,
      "先你你": 7871,
      "队正正": 7872,
      "点序": 7873,
      "脱赛": 7874,
      "不汪": 7875,
      "版外": 7876,
      "换中": 7877,
      "戊层": 7878,
      "组汇": 7879,
      "肛原": 7880,
      "心票": 7881,
      "李局": 7882,
      "裔式": 7883,
      "效嘤": 7884,
      "委突": 7885,
      "车北": 7886,
      "弩为": 7887,
      "查问": 7888,
      "北德蚌": 7889,
      "状错": 7890,
      "养少": 7891,
      "板学": 7892,
      "很言": 7893,
      "先闪": 7894,
      "利利团": 7895,
      "极再": 7896,
      "权早": 7897,
      "取楚": 7898,
      "全脑": 7899,
      "难房": 7900,
      "证择": 7901,
      "路众": 7902,
      "哪也": 7903,
      "变力": 7904,
      "照突": 7905,
      "伙便": 7906,
      "控有": 7907,
      "镰好": 7908,
      "种果": 7909,
      "独骁": 7910,
      "十十责": 7911,
      "项该": 7912,
      "哈明": 7913,
      "得望": 7914,
      "连修": 7915,
      "石群": 7916,
      "统己": 7917,
      "江打": 7918,
      "化胧胧": 7919,
      "特民": 7920,
      "高事": 7921,
      "连阱": 7922,
      "汪你": 7923,
      "逸运": 7924,
      "时制": 7925,
      "济月": 7926,
      "风克": 7927,
      "褐环": 7928,
      "汪仁": 7929,
      "回镇": 7930,
      "状织": 7931,
      "除除支": 7932,
      "期水": 7933,
      "康之": 7934,
      "值宾": 7935,
      "啊能": 7936,
      "单开": 7937,
      "注随": 7938,
      "来转": 7939,
      "浦税": 7940,
      "牺谁": 7941,
      "包神": 7942,
      "斥义": 7943,
      "越住织": 7944,
      "火因": 7945,
      "看看看看": 7946,
      "利磋磋": 7947,
      "啊步": 7948,
      "皮讲": 7949,
      "补补待": 7950,
      "所还": 7951,
      "候候候": 7952,
      "迟吃": 7953,
      "解撸": 7954,
      "每世": 7955,
      "伙病": 7956,
      "看议": 7957,
      "称捧": 7958,
      "包完": 7959,
      "八藏": 7960,
      "过过过过": 7961,
      "器古": 7962,
      "光光光光": 7963,
      "行行个": 7964,
      "便直": 7965,
      "村硝": 7966,
      "元究": 7967,
      "诲越": 7968,
      "共捧": 7969,
      "叫叫楼楼": 7970,
      "知知省": 7971,
      "息承": 7972,
      "选比": 7973,
      "易政": 7974,
      "江正": 7975,
      "证书": 7976,
      "校望": 7977,
      "用界": 7978,
      "目智": 7979,
      "计关": 7980,
      "子子羊": 7981,
      "期虽": 7982,
      "语喜": 7983,
      "局局导": 7984,
      "地底": 7985,
      "商争": 7986,
      "漓脑": 7987,
      "难书": 7988,
      "仙宝": 7989,
      "增文": 7990,
      "采馋": 7991,
      "转刚": 7992,
      "熹磋": 7993,
      "议议议光": 7994,
      "近本": 7995,
      "母亮": 7996,
      "对患": 7997,
      "编服": 7998,
      "致多": 7999,
      "除除脑": 8000,
      "林斯": 8001,
      "餐免": 8002,
      "通服": 8003,
      "语料": 8004,
      "星官": 8005,
      "是离": 8006,
      "没开": 8007,
      "尔票": 8008,
      "话螺": 8009,
      "巴或": 8010,
      "傻底": 8011,
      "切切喜": 8012,
      "断白": 8013,
      "拉爱": 8014,
      "大非非": 8015,
      "阿自": 8016,
      "后后桃": 8017,
      "榆哺": 8018,
      "班修": 8019,
      "钱演": 8020,
      "士维": 8021,
      "不言": 8022,
      "造示": 8023,
      "按导": 8024,
      "房论": 8025,
      "小小再": 8026,
      "认己": 8027,
      "钱观": 8028,
      "科背": 8029,
      "阳命": 8030,
      "次嘤": 8031,
      "达练": 8032,
      "绝楼楼": 8033,
      "脱如": 8034,
      "应五": 8035,
      "兴势": 8036,
      "达凡": 8037,
      "舜益": 8038,
      "餐务": 8039,
      "仅底": 8040,
      "断康": 8041,
      "信啊啊啊": 8042,
      "道头": 8043,
      "需需需": 8044,
      "左左左": 8045,
      "样凡": 8046,
      "校校校校": 8047,
      "所好": 8048,
      "府求": 8049,
      "卉维维": 8050,
      "故该": 8051,
      "基箱": 8052,
      "李远": 8053,
      "片居": 8054,
      "音住": 8055,
      "艺免": 8056,
      "建建建": 8057,
      "证疑": 8058,
      "普指": 8059,
      "扇彰": 8060,
      "复果": 8061,
      "飒前": 8062,
      "联南": 8063,
      "扇流流": 8064,
      "技高高": 8065,
      "老面": 8066,
      "器现": 8067,
      "太究": 8068,
      "级级级级级级级": 8069,
      "队神": 8070,
      "解保": 8071,
      "拨拨": 8072,
      "众羊": 8073,
      "浦浦": 8074,
      "社六": 8075,
      "便新": 8076,
      "气螺": 8077,
      "园起": 8078,
      "推到": 8079,
      "坝彰": 8080,
      "祀歌": 8081,
      "件张": 8082,
      "叫齐": 8083,
      "乎疑": 8084,
      "和和和和": 8085,
      "士汉": 8086,
      "外险": 8087,
      "产现": 8088,
      "运爱": 8089,
      "列桃": 8090,
      "尿明": 8091,
      "事息": 8092,
      "友模": 8093,
      "邃远": 8094,
      "电打": 8095,
      "最该": 8096,
      "板戍": 8097,
      "证绝": 8098,
      "皮助": 8099,
      "元水": 8100,
      "道吊": 8101,
      "爸之": 8102,
      "舜字": 8103,
      "买买": 8104,
      "打打正正": 8105,
      "窝是是": 8106,
      "交政": 8107,
      "承脑": 8108,
      "会会会": 8109,
      "类说": 8110,
      "风右": 8111,
      "理必": 8112,
      "场统": 8113,
      "确走": 8114,
      "例算": 8115,
      "款爱": 8116,
      "律象": 8117,
      "上奖": 8118,
      "效只": 8119,
      "网牌": 8120,
      "线看": 8121,
      "越击住": 8122,
      "结结结结结结结结": 8123,
      "啊啊下": 8124,
      "断识": 8125,
      "出出": 8126,
      "像马": 8127,
      "拉团": 8128,
      "病望": 8129,
      "死章章": 8130,
      "年它": 8131,
      "极吃": 8132,
      "养教": 8133,
      "长加": 8134,
      "择层层": 8135,
      "作从": 8136,
      "包险": 8137,
      "亲底": 8138,
      "箱箱箱目": 8139,
      "沌骨": 8140,
      "但超": 8141,
      "标支": 8142,
      "按按按按按": 8143,
      "尿现": 8144,
      "长科": 8145,
      "戏建": 8146,
      "式脱": 8147,
      "章福": 8148,
      "量供": 8149,
      "则低": 8150,
      "效白": 8151,
      "值晚": 8152,
      "动器器": 8153,
      "才才才才": 8154,
      "提益": 8155,
      "盆决决": 8156,
      "刚义": 8157,
      "油褐": 8158,
      "际女": 8159,
      "村裔": 8160,
      "沌喜": 8161,
      "鲸文": 8162,
      "大大视": 8163,
      "哺漳": 8164,
      "防与": 8165,
      "坝报": 8166,
      "遭民": 8167,
      "肛她": 8168,
      "词红": 8169,
      "与与剌": 8170,
      "统舒": 8171,
      "語南": 8172,
      "清何": 8173,
      "盟员": 8174,
      "理忆": 8175,
      "部议": 8176,
      "戏仁": 8177,
      "钱史": 8178,
      "木剌": 8179,
      "爸龙": 8180,
      "艺艺艺艺": 8181,
      "别初": 8182,
      "且细": 8183,
      "知知分": 8184,
      "因凡": 8185,
      "知知盘": 8186,
      "什早": 8187,
      "控這": 8188,
      "米螺": 8189,
      "记由": 8190,
      "旨宦": 8191,
      "称螺": 8192,
      "近城": 8193,
      "旨然": 8194,
      "些速住": 8195,
      "认境": 8196,
      "半熹": 8197,
      "盆盆箱": 8198,
      "种必": 8199,
      "班其": 8200,
      "望望望": 8201,
      "胺得": 8202,
      "权龙": 8203,
      "事能": 8204,
      "项故": 8205,
      "上调": 8206,
      "改噶": 8207,
      "官汉": 8208,
      "场商": 8209,
      "器识": 8210,
      "所深": 8211,
      "打业业": 8212,
      "造立": 8213,
      "英采": 8214,
      "们们资": 8215,
      "楼福": 8216,
      "白白深": 8217,
      "游后": 8218,
      "皮非": 8219,
      "创难": 8220,
      "欢使": 8221,
      "遭制": 8222,
      "什动": 8223,
      "周或": 8224,
      "认祀祀": 8225,
      "牌经": 8226,
      "值喜": 8227,
      "路使": 8228,
      "爸汪": 8229,
      "病终": 8230,
      "浏逸": 8231,
      "司司": 8232,
      "长地": 8233,
      "有禺禺": 8234,
      "队比比": 8235,
      "研你": 8236,
      "禺尔型": 8237,
      "房志": 8238,
      "最据": 8239,
      "餐忆": 8240,
      "晋母": 8241,
      "华脑": 8242,
      "拨志": 8243,
      "质锈": 8244,
      "瑚正": 8245,
      "营料": 8246,
      "疑待": 8247,
      "式始": 8248,
      "趁不": 8249,
      "干过": 8250,
      "点镰镰": 8251,
      "概概概": 8252,
      "网其": 8253,
      "盟背": 8254,
      "择福": 8255,
      "达继": 8256,
      "诲织": 8257,
      "浦超": 8258,
      "决里": 8259,
      "层层层层层层层层层": 8260,
      "增七": 8261,
      "人超": 8262,
      "房片": 8263,
      "沌育": 8264,
      "少协协": 8265,
      "标层": 8266,
      "病黄": 8267,
      "易参": 8268,
      "失患": 8269,
      "什之": 8270,
      "进海": 8271,
      "高高考": 8272,
      "部部褐": 8273,
      "天天级": 8274,
      "坝窝": 8275,
      "致究": 8276,
      "角完": 8277,
      "星全": 8278,
      "百等": 8279,
      "给汇": 8280,
      "侧侧论工": 8281,
      "向向向向": 8282,
      "琢超": 8283,
      "前指": 8284,
      "服提": 8285,
      "承步": 8286,
      "争京": 8287,
      "极祀": 8288,
      "则义": 8289,
      "越速": 8290,
      "馋科": 8291,
      "压难": 8292,
      "火补": 8293,
      "进起": 8294,
      "确笙笙": 8295,
      "除除啊啊": 8296,
      "深白": 8297,
      "并读": 8298,
      "吟份份": 8299,
      "卫吗吗": 8300,
      "元早": 8301,
      "让让让让": 8302,
      "向闪": 8303,
      "学指": 8304,
      "同分": 8305,
      "已观": 8306,
      "满满形": 8307,
      "行五": 8308,
      "镰伙": 8309,
      "接逸": 8310,
      "德德术": 8311,
      "爽除": 8312,
      "楚协协": 8313,
      "买序": 8314,
      "切舒舒": 8315,
      "知照": 8316,
      "率羊": 8317,
      "问发发": 8318,
      "卡剌": 8319,
      "辈斯": 8320,
      "阳府": 8321,
      "元共": 8322,
      "众撸": 8323,
      "镰配": 8324,
      "确支": 8325,
      "点推": 8326,
      "疑全": 8327,
      "吧级": 8328,
      "桃后": 8329,
      "供视": 8330,
      "帮电": 8331,
      "新四": 8332,
      "宝宝宝宝宝宝宝宝": 8333,
      "管记": 8334,
      "加羊": 8335,
      "表母": 8336,
      "把均": 8337,
      "个育": 8338,
      "局局撸": 8339,
      "玩按": 8340,
      "器哈": 8341,
      "够够够够够够够": 8342,
      "章赛": 8343,
      "列报": 8344,
      "室濡": 8345,
      "馋十": 8346,
      "告风": 8347,
      "月注": 8348,
      "卡算": 8349,
      "结八": 8350,
      "班菩": 8351,
      "流用用": 8352,
      "得商": 8353,
      "汉片": 8354,
      "舜时": 8355,
      "沌厄": 8356,
      "软每": 8357,
      "连孩": 8358,
      "橙园": 8359,
      "先需": 8360,
      "型应": 8361,
      "刚话": 8362,
      "对还": 8363,
      "名字": 8364,
      "列看": 8365,
      "道這": 8366,
      "度核": 8367,
      "爽楼": 8368,
      "老里": 8369,
      "光议": 8370,
      "尿仁": 8371,
      "红同": 8372,
      "眼解": 8373,
      "优死": 8374,
      "走应": 8375,
      "根科": 8376,
      "普和": 8377,
      "别别别别": 8378,
      "复教": 8379,
      "等百": 8380,
      "菏义": 8381,
      "楚少": 8382,
      "应应应应应": 8383,
      "单单单单单单单单": 8384,
      "天击": 8385,
      "料会": 8386,
      "脂反": 8387,
      "精公": 8388,
      "并芋": 8389,
      "队队队你": 8390,
      "官漓漓": 8391,
      "种说": 8392,
      "连哺": 8393,
      "点角": 8394,
      "下下合": 8395,
      "戍晚晚": 8396,
      "坝两两": 8397,
      "净外吗": 8398,
      "景高": 8399,
      "介数": 8400,
      "智博": 8401,
      "后后后由": 8402,
      "吊這": 8403,
      "喜喜厄": 8404,
      "动研": 8405,
      "高高高高啊啊": 8406,
      "被粉": 8407,
      "盆补补": 8408,
      "餐别": 8409,
      "东装": 8410,
      "我近": 8411,
      "强从": 8412,
      "红马": 8413,
      "乎系": 8414,
      "官书": 8415,
      "中每": 8416,
      "曾使": 8417,
      "六全": 8418,
      "历乐": 8419,
      "集背": 8420,
      "晋果": 8421,
      "导利": 8422,
      "华群": 8423,
      "被其": 8424,
      "自支": 8425,
      "句句句": 8426,
      "好很": 8427,
      "彰看": 8428,
      "力识": 8429,
      "馋何": 8430,
      "感监": 8431,
      "计莎": 8432,
      "裔裔裔裔公": 8433,
      "速速排": 8434,
      "细正": 8435,
      "增晚": 8436,
      "面课": 8437,
      "取汪": 8438,
      "兴改": 8439,
      "州他": 8440,
      "并税": 8441,
      "够绝": 8442,
      "叫叫支": 8443,
      "画士": 8444,
      "车指": 8445,
      "类政": 8446,
      "语闪": 8447,
      "等遭": 8448,
      "爽命": 8449,
      "戊合": 8450,
      "趁养": 8451,
      "达超税": 8452,
      "盘分": 8453,
      "找熹熹": 8454,
      "极患": 8455,
      "迟险": 8456,
      "己己统": 8457,
      "骁捞": 8458,
      "响响响": 8459,
      "黔黔": 8460,
      "年云": 8461,
      "越胧胧": 8462,
      "亲亲亲": 8463,
      "认涡": 8464,
      "利药磋": 8465,
      "状终": 8466,
      "做邃": 8467,
      "卉吗": 8468,
      "窝她": 8469,
      "优律": 8470,
      "制孩": 8471,
      "还还还": 8472,
      "力格": 8473,
      "承漓": 8474,
      "测气": 8475,
      "十星": 8476,
      "地巴": 8477,
      "张风": 8478,
      "七孩": 8479,
      "供邃": 8480,
      "奖补": 8481,
      "药路": 8482,
      "忆莎": 8483,
      "死齐": 8484,
      "艺场": 8485,
      "温规": 8486,
      "协究": 8487,
      "团磋磋": 8488,
      "计继哪": 8489,
      "区获": 8490,
      "像同": 8491,
      "票票票票": 8492,
      "小戍戍": 8493,
      "汉汉高": 8494,
      "榆她": 8495,
      "再再再再再": 8496,
      "神他": 8497,
      "这山": 8498,
      "疑农": 8499,
      "黄生": 8500,
      "趁胺": 8501,
      "续象": 8502,
      "确确确确确确确确确确": 8503,
      "连宦": 8504,
      "英通": 8505,
      "没华华": 8506,
      "到使": 8507,
      "单藏": 8508,
      "脱爵": 8509,
      "创下": 8510,
      "承片": 8511,
      "表义": 8512,
      "州话": 8513,
      "除除除除除除除除除除除除除除": 8514,
      "技技技技技技技": 8515,
      "它科": 8516,
      "大注": 8517,
      "认再": 8518,
      "诲算": 8519,
      "两孩": 8520,
      "啊啊啊片": 8521,
      "采度": 8522,
      "强务": 8523,
      "断变": 8524,
      "以兴": 8525,
      "撸撸": 8526,
      "施武": 8527,
      "婚剧": 8528,
      "外镇": 8529,
      "择择择择择择": 8530,
      "背仁": 8531,
      "厢铝": 8532,
      "克禺": 8533,
      "职美": 8534,
      "林芋": 8535,
      "好参": 8536,
      "死宝": 8537,
      "半票": 8538,
      "论观": 8539,
      "概头": 8540,
      "口这": 8541,
      "断巴巴": 8542,
      "路路突": 8543,
      "密运": 8544,
      "骨剌": 8545,
      "因价满": 8546,
      "境友": 8547,
      "桃班": 8548,
      "硝硝尔": 8549,
      "商岁": 8550,
      "水被": 8551,
      "楚取": 8552,
      "些为": 8553,
      "课那": 8554,
      "民党": 8555,
      "队尿尿": 8556,
      "尔尔件": 8557,
      "深这": 8558,
      "共装": 8559,
      "承承承承承承": 8560,
      "母濡": 8561,
      "下下下下下下下下": 8562,
      "态亮": 8563,
      "到噶": 8564,
      "不动": 8565,
      "作哺": 8566,
      "小普": 8567,
      "除除楼楼": 8568,
      "笙章": 8569,
      "反哺": 8570,
      "演粉": 8571,
      "财择": 8572,
      "流扇": 8573,
      "根健": 8574,
      "根为": 8575,
      "列管": 8576,
      "下下补": 8577,
      "持持持持": 8578,
      "费褐": 8579,
      "起群": 8580,
      "菏格": 8581,
      "够数": 8582,
      "啊质": 8583,
      "几际": 8584,
      "总教": 8585,
      "往高": 8586,
      "七牡": 8587,
      "锈锈锈锈锈锈": 8588,
      "什联": 8589,
      "告室": 8590,
      "直话": 8591,
      "半离": 8592,
      "早十": 8593,
      "例格": 8594,
      "事事事事事": 8595,
      "食硝": 8596,
      "由由桃": 8597,
      "其其其": 8598,
      "气捧": 8599,
      "式视": 8600,
      "小蚌": 8601,
      "叫叫叫楼": 8602,
      "辈确": 8603,
      "半远": 8604,
      "故牡": 8605,
      "爸险": 8606,
      "彰党": 8607,
      "吧数": 8608,
      "母涡": 8609,
      "检成": 8610,
      "上全": 8611,
      "击击击金": 8612,
      "白白色": 8613,
      "打打巴": 8614,
      "经少": 8615,
      "据捧": 8616,
      "兴兴兴兴": 8617,
      "例排": 8618,
      "已身身": 8619,
      "人凡": 8620,
      "语汪": 8621,
      "钱钱钱钱": 8622,
      "故独": 8623,
      "并被": 8624,
      "里净": 8625,
      "漳健": 8626,
      "施本": 8627,
      "早太": 8628,
      "能下": 8629,
      "神至": 8630,
      "盟给": 8631,
      "器之": 8632,
      "态失": 8633,
      "阿疑": 8634,
      "直四": 8635,
      "等模": 8636,
      "吟党": 8637,
      "更五": 8638,
      "七字": 8639,
      "窝舜": 8640,
      "拉皮": 8641,
      "遭双": 8642,
      "脱宝": 8643,
      "组浦": 8644,
      "有父": 8645,
      "公如": 8646,
      "正业之": 8647,
      "共场": 8648,
      "康康业": 8649,
      "近合": 8650,
      "羊羊健": 8651,
      "线是": 8652,
      "议议议看": 8653,
      "送照": 8654,
      "县汪": 8655,
      "找硝": 8656,
      "细院": 8657,
      "胧织": 8658,
      "队队比": 8659,
      "菏识识": 8660,
      "铝铝": 8661,
      "小小德": 8662,
      "没没群": 8663,
      "技技高": 8664,
      "决决上": 8665,
      "燃曲": 8666,
      "音排": 8667,
      "城补补": 8668,
      "走走走走走": 8669,
      "包错": 8670,
      "转建": 8671,
      "时限": 8672,
      "她存": 8673,
      "活傻": 8674,
      "声声声": 8675,
      "型色": 8676,
      "错错完": 8677,
      "十十十十十": 8678,
      "美美美美": 8679,
      "得喜": 8680,
      "下下啊": 8681,
      "为干": 8682,
      "共少": 8683,
      "史收": 8684,
      "获获获": 8685,
      "线榆": 8686,
      "下下箱箱": 8687,
      "仙质": 8688,
      "还直": 8689,
      "除除叫": 8690,
      "绝绝绝绝绝绝绝绝绝绝": 8691,
      "研处": 8692,
      "活宾": 8693,
      "注控观": 8694,
      "效正": 8695,
      "率率率": 8696,
      "施盆": 8697,
      "思琢": 8698,
      "那榆": 8699,
      "楼楼楼楼楼楼楼楼楼楼楼楼楼楼楼楼楼楼楼楼楼": 8700,
      "元太": 8701,
      "尔型听": 8702,
      "父父父父": 8703,
      "充我": 8704,
      "用用用用用": 8705,
      "球球球": 8706,
      "从遭": 8707,
      "复识": 8708,
      "实老": 8709,
      "用桃": 8710,
      "交置": 8711,
      "协律": 8712,
      "餐势": 8713,
      "外外外外": 8714,
      "绝脑": 8715,
      "创房": 8716,
      "采责": 8717,
      "北北德": 8718,
      "部光": 8719,
      "域福": 8720,
      "橙锈": 8721,
      "海式": 8722,
      "交易": 8723,
      "先光": 8724,
      "盘省": 8725,
      "亲周": 8726,
      "考考高": 8727,
      "委米": 8728,
      "水遭": 8729,
      "周周则": 8730,
      "侧侧习关": 8731,
      "做英": 8732,
      "幂词": 8733,
      "显作": 8734,
      "东行": 8735,
      "政色": 8736,
      "确除": 8737,
      "教仁": 8738,
      "证证证证证证证证": 8739,
      "也级": 8740,
      "达铝": 8741,
      "自乎": 8742,
      "变康": 8743,
      "几地": 8744,
      "社难": 8745,
      "些领": 8746,
      "班室": 8747,
      "于于版": 8748,
      "楼楼楼楼楼楼楼楼楼楼楼楼楼楼楼楼楼楼楼楼楼楼楼楼楼楼楼楼楼楼楼楼楼楼楼楼楼楼楼楼楼楼楼楼楼楼楼楼楼楼楼楼楼楼楼楼楼楼楼楼楼楼楼楼": 8749,
      "但税": 8750,
      "东前": 8751,
      "語傻": 8752,
      "想最": 8753,
      "检形": 8754,
      "啊啊啊啊高": 8755,
      "工刚": 8756,
      "优装": 8757,
      "态江": 8758,
      "岁场": 8759,
      "际德": 8760,
      "素园": 8761,
      "在骁": 8762,
      "个指": 8763,
      "研不": 8764,
      "虽民": 8765,
      "包迟": 8766,
      "优京": 8767,
      "待书": 8768,
      "辈空": 8769,
      "认商": 8770,
      "至伙": 8771,
      "熹干": 8772,
      "进满": 8773,
      "脱裔": 8774,
      "话英": 8775,
      "费部": 8776,
      "月软": 8777,
      "队历": 8778,
      "到练": 8779,
      "团团拉": 8780,
      "哪莎": 8781,
      "章开": 8782,
      "游被": 8783,
      "吟议": 8784,
      "住剌": 8785,
      "科率": 8786,
      "介六": 8787,
      "或巴巴": 8788,
      "米忆": 8789,
      "古古古": 8790,
      "自层": 8791,
      "汉啊啊啊": 8792,
      "噶补": 8793,
      "营何": 8794,
      "气少": 8795,
      "种周": 8796,
      "得化": 8797,
      "道婚": 8798,
      "区喜": 8799,
      "本本承": 8800,
      "素质": 8801,
      "限时": 8802,
      "求起": 8803,
      "欢容": 8804,
      "约约约": 8805,
      "活活": 8806,
      "知利": 8807,
      "写为": 8808,
      "已概": 8809,
      "来动": 8810,
      "两两份份": 8811,
      "称胺": 8812,
      "人练": 8813,
      "复划": 8814,
      "精讲": 8815,
      "花存": 8816,
      "接记": 8817,
      "镇数": 8818,
      "于于完": 8819,
      "志我": 8820,
      "确确笙": 8821,
      "戊绝绝": 8822,
      "服阱": 8823,
      "学己己": 8824,
      "界坝": 8825,
      "细细细细": 8826,
      "宾县县": 8827,
      "吟水": 8828,
      "趁仅": 8829,
      "初务": 8830,
      "核奖": 8831,
      "镇农": 8832,
      "料戏": 8833,
      "黄指": 8834,
      "团食": 8835,
      "死按": 8836,
      "仅果": 8837,
      "验建": 8838,
      "叫叫叫叫叫叫叫叫叫叫": 8839,
      "防周": 8840,
      "性忆": 8841,
      "除叫除": 8842,
      "事宝": 8843,
      "企境": 8844,
      "致示": 8845,
      "晚戍戍": 8846,
      "编提": 8847,
      "爱剧": 8848,
      "本应": 8849,
      "牌刚": 8850,
      "大邃盘": 8851,
      "沌状": 8852,
      "弩和": 8853,
      "望场": 8854,
      "啊啊啊啊啊啊啊啊啊啊啊啊啊": 8855,
      "决求": 8856,
      "资义": 8857,
      "史转转": 8858,
      "毕层": 8859,
      "漓漓啊": 8860,
      "高高高高高啊": 8861,
      "职剌": 8862,
      "周地地": 8863,
      "窝限": 8864,
      "吊中": 8865,
      "千权": 8866,
      "度清": 8867,
      "共己": 8868,
      "什现": 8869,
      "采左": 8870,
      "酒质": 8871,
      "再育": 8872,
      "小切": 8873,
      "由业": 8874,
      "斥收": 8875,
      "待务": 8876,
      "资所": 8877,
      "模行": 8878,
      "舒育": 8879,
      "取究": 8880,
      "爸错": 8881,
      "然研": 8882,
      "粉讲": 8883,
      "划胺": 8884,
      "创我": 8885,
      "净求": 8886,
      "照熹": 8887,
      "重汪": 8888,
      "转何": 8889,
      "复旨": 8890,
      "有被": 8891,
      "学晚晚": 8892,
      "沌会": 8893,
      "圈务": 8894,
      "源发": 8895,
      "华华华华华华华华": 8896,
      "终乐": 8897,
      "料化": 8898,
      "也形": 8899,
      "存亚": 8900,
      "撸加": 8901,
      "红捧": 8902,
      "义浦": 8903,
      "先动": 8904,
      "线输": 8905,
      "牌晋": 8906,
      "产产产产": 8907,
      "划建": 8908,
      "以木": 8909,
      "初深": 8910,
      "态次": 8911,
      "患四": 8912,
      "转亮": 8913,
      "至四": 8914,
      "度引": 8915,
      "型球": 8916,
      "是更更": 8917,
      "室百": 8918,
      "便伙": 8919,
      "度螺": 8920,
      "牺超": 8921,
      "北北北北": 8922,
      "城府": 8923,
      "防根": 8924,
      "创创创创": 8925,
      "色正": 8926,
      "看期": 8927,
      "技标": 8928,
      "成剧": 8929,
      "除楼楼楼": 8930,
      "思芋": 8931,
      "习软": 8932,
      "极会": 8933,
      "章级": 8934,
      "除全": 8935,
      "对对对对": 8936,
      "款有有": 8937,
      "字字孩": 8938,
      "点兴": 8939,
      "市数": 8940,
      "云政": 8941,
      "支书": 8942,
      "药半": 8943,
      "利利利": 8944,
      "吟该": 8945,
      "注内": 8946,
      "根亲": 8947,
      "交忆": 8948,
      "背巴": 8949,
      "介按": 8950,
      "大量": 8951,
      "污究": 8952,
      "闪完": 8953,
      "价海海海": 8954,
      "到委": 8955,
      "则其": 8956,
      "除书书": 8957,
      "罗罗罗": 8958,
      "牺走": 8959,
      "迟迟效": 8960,
      "身均": 8961,
      "除除除除除除除除除除除除除除除除除除除除除除除除除除除除除除除除": 8962,
      "优越": 8963,
      "志软": 8964,
      "哈权": 8965,
      "之之之": 8966,
      "断深": 8967,
      "词比": 8968,
      "展反": 8969,
      "毕疑": 8970,
      "进导": 8971,
      "试试试": 8972,
      "合合啊": 8973,
      "练位": 8974,
      "平宾": 8975,
      "防果": 8976,
      "或识": 8977,
      "背之": 8978,
      "运尔记": 8979,
      "介藏": 8980,
      "胧如如": 8981,
      "期条": 8982,
      "素社": 8983,
      "嘤嘤嘤嘤嘤": 8984,
      "落落落": 8985,
      "进橙": 8986,
      "技天": 8987,
      "协士": 8988,
      "单李": 8989,
      "仙府": 8990,
      "供大大": 8991,
      "层宝": 8992,
      "路路利": 8993,
      "右衫": 8994,
      "开争": 8995,
      "转经": 8996,
      "版完": 8997,
      "撸反": 8998,
      "相板": 8999,
      "感捧": 9000,
      "学认": 9001,
      "终苏": 9002,
      "健脂": 9003,
      "际北": 9004,
      "有记风": 9005,
      "补因": 9006,
      "路也": 9007,
      "政还": 9008,
      "火城": 9009,
      "显字": 9010,
      "它候": 9011,
      "病伙": 9012,
      "祀场": 9013,
      "协京": 9014,
      "布布": 9015,
      "汉儿": 9016,
      "本本府": 9017,
      "用流流": 9018,
      "被被被": 9019,
      "然王": 9020,
      "几几几几": 9021,
      "机机机": 9022,
      "觉世": 9023,
      "切厄厄": 9024,
      "进间": 9025,
      "仁胺": 9026,
      "税中": 9027,
      "看立": 9028,
      "林空": 9029,
      "却其": 9030,
      "外爵": 9031,
      "想项": 9032,
      "全求": 9033,
      "宾宾喜": 9034,
      "卫求": 9035,
      "辈级": 9036,
      "最给": 9037,
      "铝控浏": 9038,
      "子子健": 9039,
      "剧记": 9040,
      "验早": 9041,
      "科地地": 9042,
      "右刚": 9043,
      "歌越": 9044,
      "州汇": 9045,
      "养变": 9046,
      "盆下": 9047,
      "牺芋": 9048,
      "但称": 9049,
      "玩数": 9050,
      "信事": 9051,
      "华单单": 9052,
      "污园": 9053,
      "成非": 9054,
      "自楼": 9055,
      "诲例": 9056,
      "接位": 9057,
      "元造": 9058,
      "看报": 9059,
      "如胧胧": 9060,
      "线原": 9061,
      "班民": 9062,
      "利拉": 9063,
      "白四": 9064,
      "宦宦门": 9065,
      "来建": 9066,
      "州建": 9067,
      "增肛": 9068,
      "累深": 9069,
      "污争": 9070,
      "层层官": 9071,
      "几傻": 9072,
      "辈天": 9073,
      "镰富": 9074,
      "餐曲": 9075,
      "险业": 9076,
      "打失": 9077,
      "控菏": 9078,
      "心硝": 9079,
      "全箱": 9080,
      "同据": 9081,
      "及远": 9082,
      "决老": 9083,
      "伙镰镰": 9084,
      "十彰": 9085,
      "看作": 9086,
      "住住织": 9087,
      "找找找": 9088,
      "侧难": 9089,
      "线该": 9090,
      "語总": 9091,
      "艺花": 9092,
      "前骁": 9093,
      "达芋": 9094,
      "环致": 9095,
      "像重": 9096,
      "后父": 9097,
      "十低": 9098,
      "周门": 9099,
      "边专": 9100,
      "极骨": 9101,
      "密讲": 9102,
      "便还": 9103,
      "熹熹拉": 9104,
      "龙胺": 9105,
      "示别": 9106,
      "群标": 9107,
      "士士书": 9108,
      "榆报": 9109,
      "水双": 9110,
      "卉精": 9111,
      "学行": 9112,
      "式式公": 9113,
      "服菩": 9114,
      "流并": 9115,
      "取捧": 9116,
      "温仅": 9117,
      "舒值值": 9118,
      "六择": 9119,
      "鲸和": 9120,
      "啊啊啊合": 9121,
      "科科地": 9122,
      "达谁": 9123,
      "女宾": 9124,
      "正正尿": 9125,
      "語板": 9126,
      "走李": 9127,
      "镰理": 9128,
      "初兴": 9129,
      "再会": 9130,
      "因委": 9131,
      "直又": 9132,
      "择择官": 9133,
      "单命": 9134,
      "县楚楚": 9135,
      "克父": 9136,
      "能府": 9137,
      "生个": 9138,
      "补难": 9139,
      "奖官": 9140,
      "叫爽爽": 9141,
      "除除除啊": 9142,
      "吊禺": 9143,
      "流从": 9144,
      "文其": 9145,
      "调层": 9146,
      "预它": 9147,
      "校害": 9148,
      "箱箱箱箱": 9149,
      "模个": 9150,
      "也多": 9151,
      "场场场": 9152,
      "节性": 9153,
      "近啊啊": 9154,
      "路团": 9155,
      "版圈": 9156,
      "林可": 9157,
      "视公": 9158,
      "光据": 9159,
      "税号": 9160,
      "每格": 9161,
      "捞等": 9162,
      "度称": 9163,
      "回致": 9164,
      "易卡": 9165,
      "必拨": 9166,
      "叫叫叫叫叫叫叫叫叫叫叫叫": 9167,
      "包正": 9168,
      "八天": 9169,
      "前个": 9170,
      "由脂": 9171,
      "流两两": 9172,
      "汪南": 9173,
      "以厄": 9174,
      "分知团团": 9175,
      "窝窝窝窝": 9176,
      "同汇": 9177,
      "界孩": 9178,
      "纪入": 9179,
      "骨骨骨骨": 9180,
      "则过": 9181,
      "服师": 9182,
      "使使": 9183,
      "风门": 9184,
      "玩软": 9185,
      "开开级": 9186,
      "粉其": 9187,
      "责气": 9188,
      "情礼": 9189,
      "戊杀": 9190,
      "于闪": 9191,
      "数数数数数数数数数数数数数数数数": 9192,
      "商商商商": 9193,
      "计凡": 9194,
      "联险": 9195,
      "电帮": 9196,
      "待施": 9197,
      "备班": 9198,
      "路知始式": 9199,
      "便点点": 9200,
      "但随": 9201,
      "箱箱箱换": 9202,
      "车格": 9203,
      "复称": 9204,
      "壑壑壑壑": 9205,
      "比序": 9206,
      "遭买": 9207,
      "强并": 9208,
      "合合合合合合合": 9209,
      "海究": 9210,
      "直纱": 9211,
      "治介": 9212,
      "时份份": 9213,
      "太指": 9214,
      "效曲": 9215,
      "至至至": 9216,
      "太境": 9217,
      "华华本": 9218,
      "岁势": 9219,
      "与职职": 9220,
      "单结结": 9221,
      "证除": 9222,
      "需先": 9223,
      "戊自": 9224,
      "传均": 9225,
      "戍和": 9226,
      "游益": 9227,
      "右网": 9228,
      "必白白": 9229,
      "排优": 9230,
      "支锈": 9231,
      "所所拨": 9232,
      "科录": 9233,
      "心爱": 9234,
      "处己": 9235,
      "脱象": 9236,
      "星序": 9237,
      "扇扇显": 9238,
      "果种": 9239,
      "戏教": 9240,
      "定试": 9241,
      "管由由": 9242,
      "条坝": 9243,
      "榆原": 9244,
      "边硝硝硝": 9245,
      "数官官": 9246,
      "高叫": 9247,
      "知头": 9248,
      "目线": 9249,
      "在晚晚": 9250,
      "共研": 9251,
      "流流流两": 9252,
      "在己己": 9253,
      "型并": 9254,
      "死疑": 9255,
      "气监": 9256,
      "人吗吗": 9257,
      "河邃": 9258,
      "告网": 9259,
      "演林": 9260,
      "福除除": 9261,
      "奇本": 9262,
      "再弩": 9263,
      "注均": 9264,
      "动长": 9265,
      "牺牺牺牺": 9266,
      "被名": 9267,
      "祀认": 9268,
      "线窝": 9269,
      "士镇": 9270,
      "清采": 9271,
      "够乎": 9272,
      "绝绝绝绝绝绝绝绝绝": 9273,
      "酒高高": 9274,
      "做道": 9275,
      "料好": 9276,
      "嘤江": 9277,
      "课造": 9278,
      "戏录": 9279,
      "早建": 9280,
      "因源": 9281,
      "始断": 9282,
      "火我": 9283,
      "死充": 9284,
      "背集": 9285,
      "亲健": 9286,
      "侧容": 9287,
      "导撸": 9288,
      "务配": 9289,
      "然给": 9290,
      "过率": 9291,
      "质技技": 9292,
      "吗向": 9293,
      "局局局局": 9294,
      "议彰": 9295,
      "前飒": 9296,
      "难侧侧": 9297,
      "送路": 9298,
      "步步步步步步": 9299,
      "科科盟": 9300,
      "共模": 9301,
      "即儿": 9302,
      "亲班": 9303,
      "熹哪": 9304,
      "眼脑": 9305,
      "习发关": 9306,
      "到换": 9307,
      "身婚": 9308,
      "候长": 9309,
      "取境": 9310,
      "技辈": 9311,
      "但厢": 9312,
      "开开天": 9313,
      "难息": 9314,
      "决协": 9315,
      "州耗": 9316,
      "元是": 9317,
      "点直": 9318,
      "吃迟": 9319,
      "扇扇字": 9320,
      "义资": 9321,
      "欢双": 9322,
      "戊书": 9323,
      "项期": 9324,
      "照测": 9325,
      "五华": 9326,
      "福啊啊": 9327,
      "母养": 9328,
      "爽齐": 9329,
      "語语": 9330,
      "死死锈": 9331,
      "比瑚": 9332,
      "或打打": 9333,
      "部采": 9334,
      "起噶": 9335,
      "福福除": 9336,
      "喜试": 9337,
      "条名": 9338,
      "刚晋": 9339,
      "度性": 9340,
      "吊运": 9341,
      "螺浦": 9342,
      "际棍": 9343,
      "传身身": 9344,
      "反健": 9345,
      "高高高本": 9346,
      "于县": 9347,
      "局远": 9348,
      "张保": 9349,
      "上城": 9350,
      "维卉": 9351,
      "感该": 9352,
      "存故": 9353,
      "围围围围": 9354,
      "且打": 9355,
      "画官": 9356,
      "康与与": 9357,
      "毕齐": 9358,
      "还至": 9359,
      "吟看看": 9360,
      "作作作": 9361,
      "有硝硝": 9362,
      "色读": 9363,
      "识果": 9364,
      "除除绝": 9365,
      "企少": 9366,
      "好言": 9367,
      "几德德": 9368,
      "干药": 9369,
      "复转": 9370,
      "条行": 9371,
      "遭桃": 9372,
      "元更": 9373,
      "量量量量": 9374,
      "藏数": 9375,
      "节务": 9376,
      "得厄": 9377,
      "伙角": 9378,
      "命命命命命命命命命命命命命命命命": 9379,
      "样发发": 9380,
      "系没": 9381,
      "高高高高高高高高高高高高高高高高高高高高高高高高高": 9382,
      "那她": 9383,
      "高高高高高高高高高高高高高高高高高高高高高高高高高高": 9384,
      "語趁": 9385,
      "村村村并": 9386,
      "几员": 9387,
      "户戏": 9388,
      "熹运": 9389,
      "龙明": 9390,
      "蚌蚌德": 9391,
      "民班": 9392,
      "吧没没": 9393,
      "病病病病": 9394,
      "击击击速": 9395,
      "山置": 9396,
      "近待": 9397,
      "漓啊啊": 9398,
      "色脂": 9399,
      "汉标": 9400,
      "环老": 9401,
      "所参": 9402,
      "除除自": 9403,
      "难啊": 9404,
      "濡前": 9405,
      "开华华": 9406,
      "内引": 9407,
      "等浦": 9408,
      "推双": 9409,
      "列宦": 9410,
      "记阱": 9411,
      "补下": 9412,
      "酒本": 9413,
      "列特": 9414,
      "食皮": 9415,
      "份作": 9416,
      "但组": 9417,
      "流流党": 9418,
      "牌底": 9419,
      "玩房": 9420,
      "肛肛肛": 9421,
      "榆舜": 9422,
      "速速球": 9423,
      "所江": 9424,
      "善官": 9425,
      "奖眼": 9426,
      "青奇": 9427,
      "非非非非非": 9428,
      "时坝": 9429,
      "或戏": 9430,
      "里实": 9431,
      "部部同": 9432,
      "界界界": 9433,
      "服连": 9434,
      "嘤嘤妇": 9435,
      "准地": 9436,
      "并净": 9437,
      "值值板": 9438,
      "绝绝楼": 9439,
      "随哪": 9440,
      "观观": 9441,
      "选选选": 9442,
      "照分": 9443,
      "完角角": 9444,
      "续续续": 9445,
      "难志": 9446,
      "处怎": 9447,
      "头概": 9448,
      "歌望": 9449,
      "调城城": 9450,
      "起盆": 9451,
      "哺作": 9452,
      "后宦": 9453,
      "重仁": 9454,
      "层层城": 9455,
      "每些金": 9456,
      "政其": 9457,
      "导解": 9458,
      "鄂鄂": 9459,
      "博微": 9460,
      "厢价满": 9461,
      "写花": 9462,
      "室网": 9463,
      "富分": 9464,
      "压压压": 9465,
      "黄忆": 9466,
      "螺监": 9467,
      "纱欢": 9468,
      "再涡": 9469,
      "所白所": 9470,
      "认板": 9471,
      "何莎": 9472,
      "剌卡": 9473,
      "宝补补": 9474,
      "漓漓官": 9475,
      "年其": 9476,
      "馋转": 9477,
      "却直": 9478,
      "稻维": 9479,
      "汉高高": 9480,
      "信府": 9481,
      "世表": 9482,
      "色深": 9483,
      "闪你你": 9484,
      "叫八": 9485,
      "太是": 9486,
      "瑚队你": 9487,
      "礼笙": 9488,
      "商行": 9489,
      "部便": 9490,
      "十立": 9491,
      "白嘤拨": 9492,
      "死胧": 9493,
      "尿尿之": 9494,
      "全城": 9495,
      "骁肛": 9496,
      "动气": 9497,
      "备被": 9498,
      "戏旨": 9499,
      "张领": 9500,
      "众众": 9501,
      "或来": 9502,
      "命本": 9503,
      "适帮": 9504,
      "限捧": 9505,
      "吟吟吟吟": 9506,
      "康康康康": 9507,
      "乐历": 9508,
      "嘤打": 9509,
      "说忆": 9510,
      "啊啊啊高高": 9511,
      "为术": 9512,
      "济公": 9513,
      "章笙笙": 9514,
      "及号": 9515,
      "测测": 9516,
      "序换": 9517,
      "发月": 9518,
      "线她": 9519,
      "角包": 9520,
      "单单应": 9521,
      "终伙": 9522,
      "漓漓绝": 9523,
      "文性": 9524,
      "核练": 9525,
      "且业巴": 9526,
      "责期": 9527,
      "五没": 9528,
      "城下": 9529,
      "故捞": 9530,
      "责亲": 9531,
      "防巴": 9532,
      "此极": 9533,
      "楼楼楼楼楼楼楼楼楼楼楼楼楼楼楼楼楼楼楼楼楼楼": 9534,
      "较志": 9535,
      "精皮": 9536,
      "汇划": 9537,
      "榆窝": 9538,
      "户料": 9539,
      "游菩": 9540,
      "虽运": 9541,
      "列连": 9542,
      "如村": 9543,
      "每每": 9544,
      "牺道": 9545,
      "全全噶": 9546,
      "少汪": 9547,
      "习厢": 9548,
      "以住": 9549,
      "争别": 9550,
      "仅趁": 9551,
      "排戍": 9552,
      "核里": 9553,
      "党党党": 9554,
      "于你你": 9555,
      "门由由": 9556,
      "螺米": 9557,
      "研然": 9558,
      "四四四": 9559,
      "磋半": 9560,
      "刚经": 9561,
      "史何": 9562,
      "戍戍戍戍": 9563,
      "原作": 9564,
      "患易易": 9565,
      "查论": 9566,
      "考高高高": 9567,
      "区宾": 9568,
      "苏新": 9569,
      "险且": 9570,
      "食助": 9571,
      "型村听": 9572,
      "必山": 9573,
      "文们": 9574,
      "达半": 9575,
      "导音": 9576,
      "河量": 9577,
      "说晋": 9578,
      "奖务": 9579,
      "够官": 9580,
      "指涡": 9581,
      "汉乎": 9582,
      "显扇": 9583,
      "士盆": 9584,
      "带帮": 9585,
      "拉拉谁": 9586,
      "基委": 9587,
      "查关": 9588,
      "接款": 9589,
      "增际": 9590,
      "补箱箱": 9591,
      "想反": 9592,
      "变巴": 9593,
      "加持": 9594,
      "为普": 9595,
      "笑州": 9596,
      "律优": 9597,
      "支毕": 9598,
      "员员员": 9599,
      "箱论": 9600,
      "戊阿": 9601,
      "者会": 9602,
      "价进": 9603,
      "苏还": 9604,
      "玩改": 9605,
      "小女": 9606,
      "今病": 9607,
      "命层": 9608,
      "录复": 9609,
      "电宦": 9610,
      "己更": 9611,
      "官官官官官": 9612,
      "即博": 9613,
      "吧应": 9614,
      "少祀": 9615,
      "于完完": 9616,
      "难按": 9617,
      "李团团": 9618,
      "提连": 9619,
      "看十": 9620,
      "企营": 9621,
      "右北德": 9622,
      "议议议议议议议": 9623,
      "什古": 9624,
      "确确确没": 9625,
      "底种": 9626,
      "元离": 9627,
      "连连连连": 9628,
      "位每": 9629,
      "科科科科科": 9630,
      "高高高高合": 9631,
      "林超": 9632,
      "变母": 9633,
      "這中": 9634,
      "游七": 9635,
      "读哺": 9636,
      "斯待": 9637,
      "防术": 9638,
      "都密": 9639,
      "看彰": 9640,
      "后由宦": 9641,
      "议议看看": 9642,
      "于窝": 9643,
      "至扇": 9644,
      "铝已": 9645,
      "部像": 9646,
      "望化": 9647,
      "去浦": 9648,
      "成身身": 9649,
      "便配配": 9650,
      "卉求": 9651,
      "易白白": 9652,
      "形级": 9653,
      "桃管服": 9654,
      "熹心心": 9655,
      "势比": 9656,
      "演税": 9657,
      "能片": 9658,
      "回污": 9659,
      "箱城": 9660,
      "走脑": 9661,
      "斥则": 9662,
      "楼藏": 9663,
      "周备": 9664,
      "头头头头": 9665,
      "胺不": 9666,
      "验气": 9667,
      "调社": 9668,
      "苏直": 9669,
      "择介": 9670,
      "今黄": 9671,
      "票送": 9672,
      "照越": 9673,
      "锈多": 9674,
      "武考": 9675,
      "组直": 9676,
      "骁戍": 9677,
      "群近": 9678,
      "价致": 9679,
      "也温": 9680,
      "习凡": 9681,
      "产失": 9682,
      "面怎": 9683,
      "地地地地": 9684,
      "啊啊高高": 9685,
      "住喜": 9686,
      "五城": 9687,
      "称斥": 9688,
      "羊议": 9689,
      "铝身": 9690,
      "尔尔专": 9691,
      "模装": 9692,
      "提管": 9693,
      "毕单": 9694,
      "每类": 9695,
      "汇力": 9696,
      "共楚": 9697,
      "橙系": 9698,
      "称双": 9699,
      "吧单": 9700,
      "消消消": 9701,
      "房换": 9702,
      "期彰": 9703,
      "报孩": 9704,
      "造更更": 9705,
      "正业巴": 9706,
      "仙求": 9707,
      "特则": 9708,
      "背健": 9709,
      "乐包": 9710,
      "人工": 9711,
      "玩发": 9712,
      "捞际": 9713,
      "确确辈": 9714,
      "稻控": 9715,
      "窘密": 9716,
      "承啊啊啊": 9717,
      "蚌普": 9718,
      "晋识": 9719,
      "橙府": 9720,
      "箱维": 9721,
      "必置置": 9722,
      "间卫": 9723,
      "报感": 9724,
      "版版致": 9725,
      "数乎": 9726,
      "或动": 9727,
      "角比": 9728,
      "面更": 9729,
      "度备": 9730,
      "螺濡": 9731,
      "传浏": 9732,
      "诲歌": 9733,
      "讲硝": 9734,
      "早取取": 9735,
      "区平": 9736,
      "正且": 9737,
      "总共": 9738,
      "作作窝": 9739,
      "不什": 9740,
      "鲸己": 9741,
      "标高高": 9742,
      "克类": 9743,
      "论工牌": 9744,
      "配餐": 9745,
      "中中": 9746,
      "补着": 9747,
      "亲科": 9748,
      "向向版": 9749,
      "铝税": 9750,
      "始量": 9751,
      "火达": 9752,
      "棍棍棍": 9753,
      "章系": 9754,
      "赛技": 9755,
      "傻宾宾": 9756,
      "赛府": 9757,
      "过周周": 9758,
      "社社社": 9759,
      "环示": 9760,
      "至对": 9761,
      "逸尔": 9762,
      "历联": 9763,
      "将将将": 9764,
      "又忆": 9765,
      "护已": 9766,
      "千称": 9767,
      "上待": 9768,
      "汉绝": 9769,
      "仁仁仁": 9770,
      "脱爽": 9771,
      "厢满海": 9772,
      "序卉": 9773,
      "眼析": 9774,
      "京协": 9775,
      "间士": 9776,
      "锈锈阿": 9777,
      "队尿之": 9778,
      "礼施": 9779,
      "鲸鲸鲸鲸": 9780,
      "流流用": 9781,
      "性行": 9782,
      "写边": 9783,
      "习累": 9784,
      "态录": 9785,
      "卡金": 9786,
      "兴伙": 9787,
      "共获": 9788,
      "般织": 9789,
      "些速击": 9790,
      "儿净": 9791,
      "厢凡": 9792,
      "苏理": 9793,
      "环造": 9794,
      "序噶": 9795,
      "元限": 9796,
      "在在条": 9797,
      "晚那": 9798,
      "牌牌牌": 9799,
      "乎阿": 9800,
      "心英": 9801,
      "统餐": 9802,
      "农齐": 9803,
      "个争": 9804,
      "啊书": 9805,
      "最王": 9806,
      "部汇": 9807,
      "远局撸": 9808,
      "辈辈辈辈辈": 9809,
      "是己己": 9810,
      "政白": 9811,
      "看时": 9812,
      "责密": 9813,
      "务势": 9814,
      "林清": 9815,
      "环环里": 9816,
      "错角角": 9817,
      "叫命命": 9818,
      "害楚": 9819,
      "随盘": 9820,
      "卫且": 9821,
      "测胺": 9822,
      "平平平": 9823,
      "亮转": 9824,
      "数脑": 9825,
      "牺并": 9826,
      "或背": 9827,
      "她肛": 9828,
      "查话": 9829,
      "州采": 9830,
      "指前": 9831,
      "晋底": 9832,
      "精视": 9833,
      "盆盆盆盆盆": 9834,
      "证福": 9835,
      "达卉": 9836,
      "迟细": 9837,
      "门班": 9838,
      "何何划": 9839,
      "极涡": 9840,
      "锈章章": 9841,
      "优以": 9842,
      "燃直": 9843,
      "名名名名": 9844,
      "爱款": 9845,
      "近下": 9846,
      "粉记": 9847,
      "何种": 9848,
      "充起": 9849,
      "报列": 9850,
      "他莎": 9851,
      "汉楼": 9852,
      "存己": 9853,
      "适适适适适": 9854,
      "生企": 9855,
      "事章": 9856,
      "领密": 9857,
      "低但": 9858,
      "再以": 9859,
      "文网": 9860,
      "开级级": 9861,
      "风室": 9862,
      "吟你": 9863,
      "啊楼": 9864,
      "太学": 9865,
      "改发": 9866,
      "奇府": 9867,
      "藏笙": 9868,
      "自自自自自自自": 9869,
      "党扇": 9870,
      "遭密": 9871,
      "给际": 9872,
      "之业业": 9873,
      "知始始": 9874,
      "到海": 9875,
      "果康": 9876,
      "美康": 9877,
      "哺光": 9878,
      "注注注": 9879,
      "局磋": 9880,
      "得料": 9881,
      "门地": 9882,
      "财财财财财财财财": 9883,
      "独表": 9884,
      "游桃": 9885,
      "这妇": 9886,
      "次江": 9887,
      "利团拉": 9888,
      "锈天天": 9889,
      "现戏": 9890,
      "配病": 9891,
      "组双": 9892,
      "调毕": 9893,
      "哪谁": 9894,
      "孩帮": 9895,
      "酒技": 9896,
      "剧足": 9897,
      "众习": 9898,
      "官承": 9899,
      "入入入": 9900,
      "相語": 9901,
      "累问": 9902,
      "书噶": 9903,
      "确确级级": 9904,
      "概硝": 9905,
      "游舜": 9906,
      "支阿": 9907,
      "告告告": 9908,
      "如如裔": 9909,
      "阱宦": 9910,
      "值值厄": 9911,
      "择够": 9912,
      "晚己那": 9913,
      "八够": 9914,
      "外脱": 9915,
      "芋维": 9916,
      "增网": 9917,
      "背问": 9918,
      "邃省": 9919,
      "板协协": 9920,
      "开开没": 9921,
      "能啊啊啊": 9922,
      "箱片": 9923,
      "区戍": 9924,
      "明你": 9925,
      "买世": 9926,
      "幂发": 9927,
      "捞益": 9928,
      "舒舒厄": 9929,
      "克讲": 9930,
      "与与与与": 9931,
      "自爽": 9932,
      "建胺": 9933,
      "序双": 9934,
      "服宦": 9935,
      "整药": 9936,
      "别务务": 9937,
      "该等": 9938,
      "票票专": 9939,
      "太共": 9940,
      "境境境境境": 9941,
      "县县县县": 9942,
      "后后适": 9943,
      "后后脂": 9944,
      "语险": 9945,
      "值祀": 9946,
      "活吃": 9947,
      "十浦": 9948,
      "空硝": 9949,
      "吧吧吧吧吧吧": 9950,
      "教状": 9951,
      "博足": 9952,
      "标盆": 9953,
      "她女": 9954,
      "打电": 9955,
      "叫确": 9956,
      "侧习关": 9957,
      "太螺": 9958,
      "句我": 9959,
      "必色": 9960,
      "只患": 9961,
      "疑施": 9962,
      "每些速金": 9963,
      "榆坝": 9964,
      "制字": 9965,
      "婚控": 9966,
      "房箱箱": 9967,
      "应想": 9968,
      "在却": 9969,
      "楚楚害害": 9970,
      "它干": 9971,
      "整李": 9972,
      "先先红": 9973,
      "定喜": 9974,
      "条条条条": 9975,
      "初至": 9976,
      "利药药药": 9977,
      "概已": 9978,
      "补补思": 9979,
      "什闪": 9980,
      "前东": 9981,
      "啊信": 9982,
      "房起": 9983,
      "幂内": 9984,
      "净芋": 9985,
      "认学": 9986,
      "整眼": 9987,
      "满元": 9988,
      "必欢": 9989,
      "点点点点": 9990,
      "列脂": 9991,
      "京京京京": 9992,
      "地周": 9993,
      "所置置": 9994,
      "酒脑": 9995,
      "整撸": 9996,
      "馋长": 9997,
      "命命命命命命命": 9998,
      "楚楚协": 9999,
      "照笑": 10000,
      "游连": 10001,
      "识巴巴": 10002,
      "必这": 10003,
      "什复": 10004,
      "燃置": 10005,
      "笑忆": 10006,
      "胧如织": 10007,
      "香汪": 10008,
      "除除除除除除除除除除除除除除除": 10009,
      "居高": 10010,
      "处离": 10011,
      "利种": 10012,
      "示示里": 10013,
      "单单笙": 10014,
      "健加": 10015,
      "服室": 10016,
      "立致": 10017,
      "是商": 10018,
      "完校": 10019,
      "谁可": 10020,
      "数求": 10021,
      "科棍": 10022,
      "事爽": 10023,
      "历先": 10024,
      "于吗": 10025,
      "切木": 10026,
      "参参参参": 10027,
      "太友": 10028,
      "决全": 10029,
      "否儿": 10030,
      "地说": 10031,
      "汉起": 10032,
      "到眼": 10033,
      "太太太太": 10034,
      "分盟": 10035,
      "爱写": 10036,
      "多而": 10037,
      "阿阿阿阿阿阿": 10038,
      "存统": 10039,
      "养县": 10040,
      "会态": 10041,
      "车网": 10042,
      "错语": 10043,
      "闪古": 10044,
      "继风": 10045,
      "高高高高高高高高高高高高高高高高高高高高高高高高高高高": 10046,
      "婚中": 10047,
      "漳宦": 10048,
      "装究": 10049,
      "礼礼礼礼礼": 10050,
      "艺部": 10051,
      "性个": 10052,
      "气给": 10053,
      "财星": 10054,
      "义义义": 10055,
      "存褐": 10056,
      "立示": 10057,
      "配他": 10058,
      "项窝": 10059,
      "看处处": 10060,
      "书求": 10061,
      "利团磋": 10062,
      "画画画": 10063,
      "随半": 10064,
      "骨患患": 10065,
      "输少": 10066,
      "还伙": 10067,
      "难创": 10068,
      "视视视": 10069,
      "极喜喜": 10070,
      "结华华": 10071,
      "数本": 10072,
      "智位": 10073,
      "十率": 10074,
      "游由": 10075,
      "除脑脑": 10076,
      "刚母": 10077,
      "原肛": 10078,
      "税款": 10079,
      "找也": 10080,
      "条怎": 10081,
      "营纱": 10082,
      "书我": 10083,
      "条统": 10084,
      "做局": 10085,
      "教得": 10086,
      "式吗": 10087,
      "仅故": 10088,
      "按治": 10089,
      "帮七": 10090,
      "继位": 10091,
      "每牌": 10092,
      "浏观": 10093,
      "红研": 10094,
      "协死": 10095,
      "突撸": 10096,
      "花利团团": 10097,
      "只易": 10098,
      "铝超": 10099,
      "两党": 10100,
      "微微": 10101,
      "人满满": 10102,
      "噶噶噶噶": 10103,
      "些速诲": 10104,
      "北德德德": 10105,
      "脑层层": 10106,
      "考自": 10107,
      "江好": 10108,
      "优赛": 10109,
      "序软": 10110,
      "飒术": 10111,
      "所至": 10112,
      "不仁": 10113,
      "苏苏言": 10114,
      "声率": 10115,
      "底底底": 10116,
      "侧源累": 10117,
      "下片": 10118,
      "早向向": 10119,
      "拨凡": 10120,
      "侧目": 10121,
      "错状": 10122,
      "阳群": 10123,
      "标质": 10124,
      "害向": 10125,
      "杀毕": 10126,
      "前行": 10127,
      "买个": 10128,
      "终至": 10129,
      "背趁": 10130,
      "处统": 10131,
      "原捞": 10132,
      "太划": 10133,
      "装元": 10134,
      "父适": 10135,
      "层爽": 10136,
      "浏已": 10137,
      "园城": 10138,
      "药远": 10139,
      "民则": 10140,
      "择士": 10141,
      "感期": 10142,
      "样计": 10143,
      "些住": 10144,
      "确确单": 10145,
      "权千": 10146,
      "啊啊除": 10147,
      "火待": 10148,
      "官邯": 10149,
      "使种": 10150,
      "办齐": 10151,
      "名角": 10152,
      "复胺胺": 10153,
      "钱成": 10154,
      "史来": 10155,
      "骁前": 10156,
      "导导导": 10157,
      "心边": 10158,
      "坝亚": 10159,
      "论盘": 10160,
      "证士": 10161,
      "禺粉": 10162,
      "制哺": 10163,
      "点双": 10164,
      "份实里": 10165,
      "阳技": 10166,
      "知知团": 10167,
      "习供": 10168,
      "分利熹": 10169,
      "过干": 10170,
      "晚晚己己": 10171,
      "充汉": 10172,
      "爵合": 10173,
      "些音": 10174,
      "她告": 10175,
      "份份水": 10176,
      "论剧": 10177,
      "做做远": 10178,
      "看看据": 10179,
      "阱七": 10180,
      "形形形形": 10181,
      "信技": 10182,
      "切切厄": 10183,
      "作该": 10184,
      "語少": 10185,
      "控位": 10186,
      "维志": 10187,
      "数邯": 10188,
      "做专": 10189,
      "嘤色": 10190,
      "显流流": 10191,
      "箱求": 10192,
      "白白白白": 10193,
      "标宝宝": 10194,
      "走华": 10195,
      "息啊": 10196,
      "省省": 10197,
      "词河": 10198,
      "疗疗疗疗": 10199,
      "版版里": 10200,
      "式化": 10201,
      "文和": 10202,
      "车普": 10203,
      "帮读": 10204,
      "心写": 10205,
      "低内": 10206,
      "角角病": 10207,
      "藏系": 10208,
      "改换位": 10209,
      "镰便": 10210,
      "重平": 10211,
      "都孩": 10212,
      "看离": 10213,
      "元元元元": 10214,
      "党被": 10215,
      "文七": 10216,
      "联明": 10217,
      "太清": 10218,
      "喜角": 10219,
      "比版": 10220,
      "识旨": 10221,
      "橙六": 10222,
      "保网": 10223,
      "使局": 10224,
      "亲种": 10225,
      "卫卉": 10226,
      "为根": 10227,
      "福全": 10228,
      "路路省": 10229,
      "校语": 10230,
      "按能": 10231,
      "吧命": 10232,
      "禺禺禺禺": 10233,
      "遭但": 10234,
      "从被": 10235,
      "镰镰富": 10236,
      "护讲": 10237,
      "在课": 10238,
      "色班": 10239,
      "科温": 10240,
      "回起": 10241,
      "活平": 10242,
      "时时窝": 10243,
      "八八八八八八八八": 10244,
      "之背": 10245,
      "德傻": 10246,
      "汪龙": 10247,
      "话力": 10248,
      "动尿尿": 10249,
      "动需": 10250,
      "很深": 10251,
      "锈锈死死": 10252,
      "导路": 10253,
      "量意": 10254,
      "健果": 10255,
      "还好": 10256,
      "间圈": 10257,
      "处据": 10258,
      "室故": 10259,
      "团团团团团团": 10260,
      "叫叫阿": 10261,
      "取感": 10262,
      "尔禺": 10263,
      "脑单": 10264,
      "诲速": 10265,
      "使划": 10266,
      "息能": 10267,
      "点改": 10268,
      "科科责": 10269,
      "片片片片片片": 10270,
      "风肛": 10271,
      "考能": 10272,
      "开赛": 10273,
      "州经": 10274,
      "山初": 10275,
      "过拉": 10276,
      "福噶": 10277,
      "环环起": 10278,
      "年年年年": 10279,
      "智满": 10280,
      "涡吃": 10281,
      "木患": 10282,
      "菩出": 10283,
      "吟看据": 10284,
      "流流流流流流": 10285,
      "读榆": 10286,
      "四白": 10287,
      "没没没没没没没": 10288,
      "如击击": 10289,
      "汪气": 10290,
      "照采": 10291,
      "维啊啊": 10292,
      "独际": 10293,
      "难压": 10294,
      "政交": 10295,
      "送莎": 10296,
      "大大非": 10297,
      "板板板板": 10298,
      "还双": 10299,
      "闪思": 10300,
      "相假": 10301,
      "高高高啊啊啊": 10302,
      "五斯": 10303,
      "林谁": 10304,
      "晚存": 10305,
      "气验": 10306,
      "健旨巴": 10307,
      "份造造": 10308,
      "左监": 10309,
      "效对": 10310,
      "式香": 10311,
      "步往": 10312,
      "除疑": 10313,
      "部部部部部": 10314,
      "仁然": 10315,
      "境祀": 10316,
      "养产": 10317,
      "牌又": 10318,
      "到净": 10319,
      "还新": 10320,
      "维发": 10321,
      "者们": 10322,
      "芋道": 10323,
      "站模": 10324,
      "众汇": 10325,
      "量盘": 10326,
      "傻女": 10327,
      "乎画": 10328,
      "卡住": 10329,
      "显显桃": 10330,
      "查计": 10331,
      "仙能": 10332,
      "创城": 10333,
      "上着": 10334,
      "业业巴": 10335,
      "论换": 10336,
      "编编编": 10337,
      "食食食食食": 10338,
      "补宝": 10339,
      "公剌": 10340,
      "样按": 10341,
      "窝窝是": 10342,
      "够自": 10343,
      "健报": 10344,
      "国域": 10345,
      "即求": 10346,
      "宝宝啊": 10347,
      "下汉": 10348,
      "只口": 10349,
      "差差": 10350,
      "吟线": 10351,
      "长周": 10352,
      "镰病": 10353,
      "反反议": 10354,
      "米限": 10355,
      "普濡": 10356,
      "没眼": 10357,
      "龙龙龙龙": 10358,
      "且且": 10359,
      "精注": 10360,
      "班浦": 10361,
      "路路始": 10362,
      "支支支支支支": 10363,
      "问发源": 10364,
      "天级级": 10365,
      "皮大": 10366,
      "副副": 10367,
      "舜被": 10368,
      "粉村": 10369,
      "政直": 10370,
      "舒和": 10371,
      "箱箱计继": 10372,
      "村村村听": 10373,
      "老实": 10374,
      "书漓": 10375,
      "份界": 10376,
      "侧侧侧侧": 10377,
      "任现": 10378,
      "沌极": 10379,
      "免病": 10380,
      "母企": 10381,
      "难士": 10382,
      "感是是": 10383,
      "包包包包": 10384,
      "它它它": 10385,
      "个示": 10386,
      "在在在在": 10387,
      "般几": 10388,
      "计换哪": 10389,
      "光羊": 10390,
      "断旨": 10391,
      "晋们": 10392,
      "巴打打": 10393,
      "知始式": 10394,
      "共得": 10395,
      "育性": 10396,
      "博海": 10397,
      "义组": 10398,
      "府府府府府府府": 10399,
      "责双": 10400,
      "世密": 10401,
      "邃分": 10402,
      "仅给": 10403,
      "利笑": 10404,
      "北骁": 10405,
      "仅线": 10406,
      "争园": 10407,
      "古红": 10408,
      "谢卉": 10409,
      "楼楼楼楼楼楼楼楼楼楼楼楼楼楼楼楼楼楼楼楼楼楼楼": 10410,
      "瑚瑚瑚": 10411,
      "除漓漓": 10412,
      "世觉": 10413,
      "随英": 10414,
      "复验": 10415,
      "习众": 10416,
      "创赛": 10417,
      "会患": 10418,
      "让妇": 10419,
      "足学": 10420,
      "食找": 10421,
      "强界": 10422,
      "根防": 10423,
      "宾板": 10424,
      "乐正": 10425,
      "早早取": 10426,
      "螺汇": 10427,
      "权称": 10428,
      "素开开": 10429,
      "活县": 10430,
      "走礼": 10431,
      "母飒": 10432,
      "类电": 10433,
      "育年": 10434,
      "之现": 10435,
      "什你你": 10436,
      "责英": 10437,
      "职蚌蚌": 10438,
      "彰比": 10439,
      "舒厄厄": 10440,
      "则馋": 10441,
      "前其": 10442,
      "药局局": 10443,
      "文车": 10444,
      "橙疑": 10445,
      "底德蚌": 10446,
      "者窘": 10447,
      "数汉": 10448,
      "坝界": 10449,
      "尔有": 10450,
      "政所所": 10451,
      "护爱": 10452,
      "运禺": 10453,
      "部离": 10454,
      "解速速": 10455,
      "技技笙": 10456,
      "护這這": 10457,
      "本城": 10458,
      "确确锈": 10459,
      "东是": 10460,
      "下息": 10461,
      "门门门门": 10462,
      "所山": 10463,
      "队你向": 10464,
      "回究": 10465,
      "外卉": 10466,
      "厢析满": 10467,
      "拉拉拉拉拉": 10468,
      "志因": 10469,
      "风款": 10470,
      "形系": 10471,
      "势角": 10472,
      "康产": 10473,
      "流被": 10474,
      "地长": 10475,
      "左编": 10476,
      "米行": 10477,
      "易说": 10478,
      "奇奇奇": 10479,
      "率议看": 10480,
      "专专件": 10481,
      "尿哈": 10482,
      "税吊": 10483,
      "吗害": 10484,
      "没没华": 10485,
      "哺看": 10486,
      "哺最": 10487,
      "伙词": 10488,
      "责据": 10489,
      "字名": 10490,
      "析了": 10491,
      "汪于你": 10492,
      "己板": 10493,
      "字被": 10494,
      "别角": 10495,
      "结单单": 10496,
      "遭作": 10497,
      "儿能": 10498,
      "效置": 10499,
      "独捞": 10500,
      "务瑚": 10501,
      "傻认": 10502,
      "市介": 10503,
      "健宦宦": 10504,
      "活喜": 10505,
      "联历": 10506,
      "复戏": 10507,
      "那更": 10508,
      "社我": 10509,
      "农象": 10510,
      "除锈": 10511,
      "群府": 10512,
      "到琢": 10513,
      "技素": 10514,
      "识千": 10515,
      "均剧": 10516,
      "取向向": 10517,
      "补承": 10518,
      "天武": 10519,
      "除除漓": 10520,
      "健撸": 10521,
      "阳没": 10522,
      "步啊啊啊": 10523,
      "在面面": 10524,
      "净卫": 10525,
      "责采": 10526,
      "啊啊汉": 10527,
      "他势": 10528,
      "皮远": 10529,
      "除府": 10530,
      "本礼": 10531,
      "动先": 10532,
      "决决实": 10533,
      "难因": 10534,
      "省知": 10535,
      "祀祀喜": 10536,
      "立环": 10537,
      "叫叫叫绝": 10538,
      "团药药": 10539,
      "报加": 10540,
      "织如如": 10541,
      "演清": 10542,
      "像盟": 10543,
      "戊证": 10544,
      "村村件": 10545,
      "笙笙笙笙笙笙笙笙笙": 10546,
      "瑚幂": 10547,
      "然服": 10548,
      "复之": 10549,
      "税半": 10550,
      "从管": 10551,
      "到求": 10552,
      "商统": 10553,
      "传传非": 10554,
      "歌住": 10555,
      "伙至": 10556,
      "剌失": 10557,
      "话话": 10558,
      "书死": 10559,
      "食村": 10560,
      "每领": 10561,
      "想应": 10562,
      "儿补补": 10563,
      "扇被": 10564,
      "后后电": 10565,
      "按官": 10566,
      "叫叫够": 10567,
      "变果": 10568,
      "苏兴": 10569,
      "复建": 10570,
      "技确": 10571,
      "种习": 10572,
      "单笙笙": 10573,
      "怎节": 10574,
      "红便": 10575,
      "班记": 10576,
      "称低": 10577,
      "熹熹谁": 10578,
      "特密": 10579,
      "這有型": 10580,
      "号撸": 10581,
      "沌沌沌沌沌": 10582,
      "风干": 10583,
      "盟盟盟盟": 10584,
      "来或": 10585,
      "博形": 10586,
      "士画": 10587,
      "仅濡": 10588,
      "宦连": 10589,
      "团导": 10590,
      "创待": 10591,
      "闪先": 10592,
      "响章": 10593,
      "胧胧住": 10594,
      "除除除楼": 10595,
      "拉拉熹": 10596,
      "橙支": 10597,
      "起府": 10598,
      "条课": 10599,
      "改练": 10600,
      "间致": 10601,
      "鲸行": 10602,
      "工每": 10603,
      "五老": 10604,
      "他话": 10605,
      "问深": 10606,
      "与累": 10607,
      "展列": 10608,
      "然去": 10609,
      "感气": 10610,
      "存存存": 10611,
      "蚌剌剌": 10612,
      "条条却": 10613,
      "钱皮": 10614,
      "奖噶噶": 10615,
      "骨卡": 10616,
      "除杀": 10617,
      "术牌": 10618,
      "初初初": 10619,
      "此态": 10620,
      "六介": 10621,
      "包队": 10622,
      "税照": 10623,
      "扇用用": 10624,
      "江嘤嘤": 10625,
      "噶眼": 10626,
      "维稻": 10627,
      "联汪": 10628,
      "也为": 10629,
      "容足": 10630,
      "果态": 10631,
      "创园": 10632,
      "版先": 10633,
      "房凡": 10634,
      "拿赛": 10635,
      "时两两": 10636,
      "亮企": 10637,
      "该期": 10638,
      "强至": 10639,
      "中记": 10640,
      "污里": 10641,
      "红州": 10642,
      "汉汉官": 10643,
      "少母": 10644,
      "没笙": 10645,
      "螺遭": 10646,
      "室师": 10647,
      "群决": 10648,
      "议议议议议议议议": 10649,
      "药英": 10650,
      "疑辈": 10651,
      "史资": 10652,
      "疑质": 10653,
      "路知始始": 10654,
      "标素": 10655,
      "爵息": 10656,
      "形始式": 10657,
      "望岁": 10658,
      "阱类": 10659,
      "四口": 10660,
      "镰忆": 10661,
      "域做": 10662,
      "运运尔": 10663,
      "确吧吧": 10664,
      "还对": 10665,
      "疑齐": 10666,
      "祀宾": 10667,
      "思外": 10668,
      "值学": 10669,
      "指岁": 10670,
      "数卉": 10671,
      "爱斥": 10672,
      "遭原": 10673,
      "由由电": 10674,
      "值舒舒": 10675,
      "数调": 10676,
      "满环": 10677,
      "汉漓漓": 10678,
      "中尔": 10679,
      "听都": 10680,
      "间象": 10681,
      "福叫": 10682,
      "爱运": 10683,
      "病新": 10684,
      "边尔": 10685,
      "经企": 10686,
      "于害害": 10687,
      "种种": 10688,
      "门管": 10689,
      "施叫": 10690,
      "显被": 10691,
      "厄协": 10692,
      "采友": 10693,
      "油员": 10694,
      "双发": 10695,
      "头送": 10696,
      "小小小小小": 10697,
      "重获": 10698,
      "能能能能能": 10699,
      "创府": 10700,
      "农城": 10701,
      "虽心": 10702,
      "击胧": 10703,
      "们飒": 10704,
      "戍德": 10705,
      "引斥": 10706,
      "模度": 10707,
      "点点势": 10708,
      "粉并": 10709,
      "噶求": 10710,
      "路知省": 10711,
      "没没锈": 10712,
      "律赛": 10713,
      "宦修": 10714,
      "证证证证证": 10715,
      "吟作窝": 10716,
      "离看": 10717,
      "本高高": 10718,
      "迟患": 10719,
      "命支": 10720,
      "元处": 10721,
      "德德德北": 10722,
      "云密": 10723,
      "样源": 10724,
      "给规": 10725,
      "斯牺": 10726,
      "边边硝": 10727,
      "区語": 10728,
      "有粉被": 10729,
      "用后由": 10730,
      "华华应": 10731,
      "橙全全": 10732,
      "光加": 10733,
      "断打打": 10734,
      "历队": 10735,
      "出新新": 10736,
      "用字字": 10737,
      "置必": 10738,
      "备则": 10739,
      "莎习": 10740,
      "票运": 10741,
      "便免": 10742,
      "爸康": 10743,
      "星择": 10744,
      "数息": 10745,
      "班子": 10746,
      "认濡": 10747,
      "乐乐乐乐": 10748,
      "宝层层": 10749,
      "地旨": 10750,
      "有有有尔尔": 10751,
      "最然": 10752,
      "有概": 10753,
      "江院": 10754,
      "富富": 10755,
      "弩德": 10756,
      "该制": 10757,
      "打断": 10758,
      "营转": 10759,
      "议议据": 10760,
      "仙园": 10761,
      "终语": 10762,
      "本合": 10763,
      "于向向": 10764,
      "戍戍晚": 10765,
      "园园园": 10766,
      "命绝": 10767,
      "责州": 10768,
      "的的的": 10769,
      "权产": 10770,
      "利花": 10771,
      "立里": 10772,
      "于校": 10773,
      "益水": 10774,
      "核起": 10775,
      "高高高高高高高高高高高高高高高高高高高高高高高高高高高高": 10776,
      "燃还": 10777,
      "委导": 10778,
      "侧侧发关": 10779,
      "读都": 10780,
      "确确确确级": 10781,
      "委每": 10782,
      "序琢": 10783,
      "需尿": 10784,
      "阳标": 10785,
      "亮胺": 10786,
      "浦粉": 10787,
      "务节": 10788,
      "来来来": 10789,
      "科通": 10790,
      "美细": 10791,
      "身讲": 10792,
      "内婚": 10793,
      "房达": 10794,
      "项提": 10795,
      "如如如公": 10796,
      "百界": 10797,
      "教验": 10798,
      "给是": 10799,
      "价起": 10800,
      "效至": 10801,
      "团团团熹": 10802,
      "状料": 10803,
      "叫叫叫高": 10804,
      "书书书书书书": 10805,
      "最故": 10806,
      "事技": 10807,
      "出必必": 10808,
      "拨卉": 10809,
      "捞她": 10810,
      "实决": 10811,
      "亲干": 10812,
      "馋录": 10813,
      "类班": 10814,
      "十何": 10815,
      "纱个": 10816,
      "正正险": 10817,
      "按福": 10818,
      "够齐": 10819,
      "本楼": 10820,
      "幂供": 10821,
      "菩节": 10822,
      "涡普": 10823,
      "卡织": 10824,
      "越拿": 10825,
      "米模": 10826,
      "花利药": 10827,
      "螺义": 10828,
      "脱外": 10829,
      "光特": 10830,
      "治治治": 10831,
      "全起": 10832,
      "游提": 10833,
      "补净": 10834,
      "说政": 10835,
      "析眼": 10836,
      "增增增增": 10837,
      "汇深": 10838,
      "牡窝": 10839,
      "尔型读": 10840,
      "章章章章章章": 10841,
      "择择层": 10842,
      "华辈": 10843,
      "间进": 10844,
      "漓噶噶": 10845,
      "骁东": 10846,
      "党彰彰": 10847,
      "汪向向": 10848,
      "八走": 10849,
      "可拉": 10850,
      "介介介介介介介介介": 10851,
      "术德": 10852,
      "餐推": 10853,
      "尔型件": 10854,
      "古建": 10855,
      "空可可": 10856,
      "蚌几": 10857,
      "球速速": 10858,
      "器加": 10859,
      "事事事事事事": 10860,
      "中民": 10861,
      "宝高高": 10862,
      "离率": 10863,
[...]
